0b
00
05
3a
03
00
4f
04
f7
48
00
df
f7
03
05
01
05
00
03
fb
00
00
00
00
7f
02
0e
2a
02
1c
2c
00
05
e1
1e
00
dc
04
34
25
00
33
09
fb
06
fd
21
00
02
d0
00
03
00
00
a3
d3
7f
ee
fa
0c
ae
00
fc
0a
15
00
19
08
09
36
00
ee
05
00
02
f8
51
00
ff
13
00
04
00
00
cc
f4
eb
1a
ff
80
e4
00
fc
f3
49
00
e5
f7
3c
80
00
45
fe
06
fa
ff
46
00
fc
36
00
fc
00
00
fa
4f
b6
e5
fe
2c
3d
00
06
80
fc
00
c4
08
16
e6
00
31
01
01
06
01
01
00
fc
fb
00
fb
00
00
e1
2c
4a
46
00
04
00
00
00
00
00
00
fe
00
81
fe
00
00
00
00
00
00
f1
00
00
00
00
00
00
00
00
00
00
00
00
00
73
00
08
48
03
00
04
00
11
1e
00
4a
05
f9
04
03
02
00
05
8f
00
ff
00
00
12
fb
6c
88
fc
7f
3f
00
01
75
95
00
f0
ff
19
0e
00
df
09
f9
07
05
58
00
04
1b
00
04
00
00
9e
1b
81
3b
fe
07
d3
00
ff
d0
80
00
27
f9
53
13
00
4b
0c
06
ff
ff
27
00
fb
0d
00
fc
00
00
62
ae
e0
da
f9
d3
17
00
02
11
47
00
06
09
2d
41
00
0a
06
fb
03
00
f2
00
01
af
00
01
00
00
dc
de
7f
d3
00
c1
d7
00
f5
04
7f
00
45
ff
50
54
00
ee
fb
fd
00
fc
f4
00
00
fa
00
0b
00
00
b8
43
2b
ee
00
ae
f1
00
03
f0
3b
00
7f
02
f5
e3
00
e8
f4
04
fb
05
fe
00
fd
39
00
08
00
00
41
4b
67
d5
07
13
3a
00
01
ed
cd
00
17
05
2a
24
00
80
06
f8
0c
03
1b
00
03
d2
00
fe
00
00
a9
72
95
3d
fe
00
f2
00
f0
2b
7f
00
e6
fe
23
2f
00
3c
f8
01
fc
f4
06
00
01
09
00
f9
00
00
3a
f8
e9
4f
06
c6
44
00
fd
f7
a6
00
c6
03
1a
18
00
3b
fa
04
02
fa
a7
00
fd
2e
00
f9
00
00
0d
e5
cf
7f
07
f9
e4
00
ff
05
6e
00
ee
f8
19
c0
00
aa
06
fe
00
03
50
00
ff
de
00
03
00
00
80
30
e6
ee
ff
6c
