fe
03
f7
f7
f3
07
fd
f5
f8
00
f1
f1
f9
fb
f9
f5
fc
fa
f8
02
04
f8
00
fc
f7
f7
04
fe
fe
fd
03
00
f6
f1
f1
f2
03
f8
f8
07
fd
f4
f2
f6
00
f1
05
f5
f9
f4
fd
05
01
04
fc
01
fb
00
00
f5
01
14
11
18
0b
0d
0a
07
f1
f1
fb
f6
05
ff
03
fc
fb
fd
e6
e9
e5
02
05
10
2e
2d
40
2c
33
1d
16
0f
f9
fe
02
f5
00
fd
f7
ee
f6
eb
e9
e8
fa
fa
09
0a
1b
2d
1b
33
23
28
10
0f
12
12
0d
f4
03
fb
fd
e6
e4
eb
fe
07
f2
e2
ee
f7
00
2e
3b
29
0f
1b
0e
25
2f
2b
02
09
fa
04
ec
f0
f4
f1
f3
f4
e2
d1
e7
f5
0d
16
0f
f7
f0
12
1f
2f
44
33
0d
02
f9
fb
f5
ed
fb
09
fe
f0
f3
e2
04
4d
4f
0f
d4
c5
e1
ef
0b
0d
1c
15
0e
fe
f4
fe
fa
e9
ff
0c
fc
02
05
f1
22
63
3b
d4
b2
c3
d6
d8
dd
f4
fd
fc
08
f4
fa
02
03
f1
fd
0a
07
fd
0c
13
47
53
12
b9
9e
b3
c5
ce
db
e0
fa
ef
f2
f7
fb
02
fc
fd
06
ed
e0
fd
1e
30
51
28
c5
90
81
b6
ca
d1
d8
eb
f9
f6
f6
f2
06
f7
fd
ff
09
fb
fa
0c
36
2d
18
d9
98
ab
be
de
f6
fa
f4
f3
f0
e6
fe
03
05
f9
ff
0d
0f
28
30
48
52
2c
09
e1
ba
c7
f4
11
12
14
1a
11
01
fe
f1
f9
f2
fa
03
0d
13
39
33
3a
37
29
17
00
e4
02
10
2b
33
27
1c
10
08
ee
fc
fd
f5
f7
04
10
12
16
07
10
0e
17
20
29
30
26
3c
31
30
16
18
16
fe
f6
f9
06
ff
fa
f5
fc
0b
fd
f1
01
11
13
19
26
2e
28
2f
17
18
18
00
06
f9
fb
f2
fc
06
05
06
f6
ef
ea
f5
f3
f4
fb
f0
03
f5
03
03
0f
09
03
07
0c
f9
f2
fe
f2
f5
f0
f4
02
f0
03
f1
f7
ee
fa
f2
ed
f8
f2
f0
01
01
f7
fd
f3
01
fb
fa
07
00
00
00
00
00
00
00
00
00
00
00
00
00
00
00
00
00
00
00
00
00
00
00
00
00
00
00
00
00
00
00
00
00
00
00
00
00
00
00
00
00
00
00
00
00
00
00
00
00
00
00
00
00
00
00
00
00
00
00
00
00
00
00
00
00
00
00
00
00
00
00
00
00
00
00
00
00
00
00
00
00
00
00
00
00
00
00
00
00
00
00
00
00
00
00
00
00
00
00
00
00
00
00
00
00
00
00
00
00
00
00
00
00
00
00
00
00
00
00
00
00
00
00
00
00
00
00
00
00
00
00
00
00
00
00
00
00
00
00
00
00
00
00
00
00
00
00
00
00
00
00
00
00
00
00
00
00
00
00
00
00
00
00
00
00
00
00
00
00
00
00
00
00
00
00
00
00
00
00
00
00
00
00
00
00
00
00
00
00
00
00
00
00
00
00
00
00
00
00
00
00
00
00
00
00
00
00
00
00
00
00
00
00
00
00
00
00
00
00
00
00
00
00
00
00
00
00
ff
ff
00
00
00
00
00
00
00
00
00
00
00
00
00
00
00
00
00
00
00
00
00
00
ff
00
00
00
00
00
00
00
00
00
00
00
00
00
00
00
00
00
00
00
00
00
00
00
00
00
00
00
00
00
00
00
00
00
00
00
00
00
00
00
00
00
00
00
00
00
00
00
00
00
00
00
00
00
00
00
00
00
00
00
00
00
00
00
00
00
00
00
00
00
00
00
00
00
00
00
00
00
00
00
00
00
00
00
00
00
00
00
00
00
00
00
00
00
00
00
00
00
00
00
00
00
00
00
00
00
00
00
00
00
00
00
00
00
00
00
00
00
00
00
00
00
00
00
00
00
00
00
00
00
00
00
00
00
00
00
00
00
00
00
00
00
00
00
00
00
00
00
00
00
00
00
00
00
00
00
00
00
00
00
00
00
00
00
00
00
00
00
00
00
00
00
00
00
00
00
00
00
00
00
00
b3
b3
b3
b3
b3
b3
b3
b3
b3
b3
b3
b3
b3
b3
b3
b3
b3
b3
b3
b3
b3
b3
b3
b3
b3
b3
b3
b3
b3
b3
b3
b4
b4
b5
b5
b3
b2
b4
b6
b6
b4
b5
b4
b3
b3
b3
b3
b3
b3
b3
b3
b3
b3
b4
b5
bb
c4
c7
c1
bc
bc
be
c7
c8
bd
bb
b6
b2
b3
b3
b3
b3
b3
b3
b3
b4
b4
b3
b2
b8
c2
cf
d4
c5
bf
bd
bd
c8
d1
d2
c7
b9
af
b0
b4
b4
b3
b3
b3
b4
b3
ae
af
c0
cc
cf
d1
be
bc
e0
f3
f2
ef
e3
d3
b8
ae
b3
b5
b4
b3
b3
b2
b1
ae
ad
b6
cb
d7
d9
e5
e3
eb
f1
01
f9
ef
e8
de
c3
bd
bb
b5
b4
b3
b3
b2
b1
b1
bd
c2
d0
e2
0d
1c
11
f0
ba
b6
d3
d8
d3
d0
d4
cb
bc
b4
b3
b3
b3
b3
b5
be
c4
b2
a3
d5
19
1d
f8
cb
a2
c2
de
cf
b8
ba
cd
c7
ba
b3
b3
b3
b3
b3
b9
b9
ab
80
82
c7
ea
e2
cd
c6
c3
d9
d6
c1
bb
bf
c9
c0
bb
b9
b4
b3
b3
b3
b4
b3
ab
9e
c6
f9
fa
e8
d8
d4
d7
f5
e6
c6
c7
cd
d1
c3
b9
ba
b5
b3
b3
b4
b4
b7
ba
e3
16
23
15
fa
dc
dd
e3
ee
e5
da
d5
c9
c5
b7
af
b4
b5
b3
b3
ba
c2
c7
cb
dc
f2
fa
fd
fd
ed
d9
d3
d8
d3
da
ce
c0
b9
b5
b5
b7
b5
b3
b3
b6
bb
c2
cd
d9
ea
fa
ff
f9
e3
c0
b7
c2
d1
ea
d3
b3
b0
af
b2
b3
b3
b3
b3
b4
b2
a4
aa
ce
ec
00
05
01
eb
c8
d8
dc
d5
df
bf
ab
af
b2
b4
b4
b3
b3
b3
b4
b4
a8
a8
c5
df
e0
e5
e4
e2
ea
e9
c9
b4
b7
b1
b1
b3
b3
b2
b3
b3
b3
b3
b4
b7
b6
b8
c2
c8
c6
c4
c3
c1
ca
c3
ba
ae
ae
b5
b9
b8
b5
b3
b3
b3
b3
b3
b4
b4
b4
b5
b8
ba
bb
c3
c7
ba
b7
bf
bf
b9
b7
b7
b6
b6
b5
b3
b3
b3
b3
b3
b3
b3
b3
b4
b4
b5
b4
b4
b5
b2
b2
b3
b4
b3
b4
b4
b4
b3
b3
b3
b3
b3
fc
02
09
02
fa
08
0a
0a
fc
06
f8
fb
0b
ff
f9
fb
f4
03
f6
03
ff
f6
fe
05
fa
f5
01
03
06
0c
f7
fe
0c
03
0d
fe
09
11
05
03
05
0d
09
04
0b
f9
f8
fc
f6
06
02
00
fd
06
0c
0a
0d
fb
0b
13
08
13
16
0b
17
0b
09
fc
fd
08
f5
0c
fd
f6
03
07
02
12
07
0c
0a
05
ff
fc
17
21
2a
28
1e
22
21
1c
16
06
fc
03
f5
08
fe
f6
0e
13
16
06
fc
dd
ca
9f
85
82
9b
b8
de
f9
1f
2a
1f
20
10
fe
02
02
04
01
fe
06
0a
f2
d8
ca
b9
ac
80
89
ac
d2
ed
0a
04
28
1c
25
03
fe
04
06
f9
fb
03
f8
fc
ec
d9
e0
ea
eb
e4
f5
f1
ea
f1
e2
e7
ee
11
12
13
05
09
07
fe
f7
ed
e1
dc
ee
f4
f3
1c
2b
38
2b
fb
c1
c0
c4
ca
d3
fd
02
fe
0c
fe
0b
05
fb
ec
dd
d8
00
08
2d
5d
54
26
0c
da
cd
d7
de
d8
d5
f6
0a
03
06
01
f4
f9
f3
f5
e3
f5
09
06
11
28
29
2f
0d
e1
f5
f9
ee
f4
03
05
0c
f8
ff
00
fd
00
06
04
0c
fa
f6
e2
d3
fa
4a
73
39
04
f9
0b
04
0c
0b
16
01
fe
04
f8
05
f9
03
11
14
11
f1
dd
d7
f2
3a
48
23
0d
f7
05
08
13
20
1f
12
f9
fa
03
fa
fe
0b
18
27
26
0f
15
fe
22
1e
27
25
13
0b
fa
ff
1e
20
0b
0c
08
f9
f5
0a
f8
0e
0b
15
36
27
2b
1d
26
1d
20
14
19
21
1c
21
1f
18
13
05
fe
fc
ff
fe
fd
0d
01
07
07
10
04
12
01
11
06
1f
25
29
39
1b
14
00
04
f8
09
07
fe
fc
fd
08
f4
f6
f3
ef
eb
02
07
0a
2b
1f
0e
00
ff
f5
00
fe
ff
05
fe
07
03
0c
08
01
01
f5
e7
da
e1
d5
de
e5
db
ec
dc
d7
ec
ef
f7
fb
fd
fc
f9
02
fc
01
03
05
f8
ff
f0
f7
fc
fa
f4
e9
e4
f1
f8
f3
f6
f2
f8
01
fd
05
08
0b
fd
f8
07
00
06
fe
fb
08
ff
08
03
08
08
03
07
fa
00
0a
03
01
ff
f9
fe
01
06
03
04
fc
ff
fc
09
01
f8
03
00
05
fb
0b
09
05
01
09
fb
07
03
0a
fd
fe
01
08
05
fa
f8
ff
fc
ee
ef
db
d9
de
e0
eb
f2
00
07
12
0c
01
ff
0a
03
fe
fd
fe
fc
f4
fa
e8
f4
e4
e8
dc
db
f5
f6
02
f4
fb
06
07
05
0d
fc
fd
fd
07
f9
fb
fa
f3
ef
ef
f6
00
f8
fa
fa
e7
e6
f7
ee
ec
f8
f4
fb
fe
05
01
f8
fd
05
fa
fc
f4
f2
f4
0d
08
11
01
f6
df
d8
da
f6
08
08
fd
fd
08
09
fb
02
f8
01
fd
fc
fc
04
04
13
1d
1e
1b
24
13
fb
ff
12
0f
14
0a
12
10
0e
ff
09
08
00
00
00
09
0e
23
2e
23
17
0d
f9
e1
e7
00
0c
f3
01
0f
2b
14
08
fd
0a
fb
01
fa
fe
01
0e
1b
17
0c
f1
f1
e8
dd
e3
0d
fe
f2
07
1a
2c
1b
18
07
09
fa
00
00
fb
03
0b
17
1c
12
f4
f4
f7
e1
ef
04
fa
fc
ff
fe
01
07
0e
03
08
fd
02
07
02
fc
09
26
38
51
45
2d
10
06
21
0f
05
04
f0
de
e7
e8
ff
09
02
f8
08
08
f9
f4
ea
13
38
64
7f
7c
7c
56
2b
fd
f3
f7
e1
e6
ce
e0
fa
03
00
fb
fd
ff
fd
e3
dd
ec
05
11
25
2f
42
27
fa
e9
e5
ea
e4
d8
de
e8
05
07
06
fe
09
ff
f4
ee
e9
e0
e8
e4
eb
f2
eb
e9
e8
ee
f9
f3
ec
f1
fe
fd
0f
05
f9
fe
04
04
02
f3
f4
ef
f5
f4
f4
e7
f8
fa
0d
0e
06
00
08
fe
0f
06
fb
09
01
02
02
fa
fc
f1
e9
e9
da
e9
eb
e7
f5
f5
00
10
05
13
10
0e
04
08
05
06
07
05
06
05
fa
fa
f4
ff
f9
e5
e4
e1
ea
df
f3
fb
f6
fa
f8
fd
fe
09
00
f9
01
09
06
01
fb
07
09
fe
fd
05
03
01
04
03
04
05
f7
07
fa
06
f8
09
fc
07
06
09
00
00
00
00
00
00
00
00
00
00
00
00
00
00
00
00
00
00
00
00
00
00
00
00
00
00
00
00
00
00
00
00
00
00
00
00
00
00
00
00
00
00
00
00
00
00
00
00
00
00
00
00
00
00
00
00
00
00
00
00
00
00
00
00
00
00
00
00
00
00
00
00
00
00
00
00
00
00
00
00
00
00
01
00
00
00
00
00
00
00
00
00
00
00
00
00
00
00
00
00
00
00
00
00
00
00
00
00
00
00
00
00
00
00
00
00
00
00
00
00
00
00
00
00
00
00
00
00
00
00
00
00
00
00
00
00
00
00
00
00
00
00
00
00
00
00
00
00
00
00
00
00
00
00
00
00
00
00
00
00
00
00
00
00
00
00
00
00
00
00
00
00
00
00
00
00
00
00
00
00
00
00
00
00
00
00
00
00
00
00
00
00
00
00
00
00
00
00
00
00
00
00
00
00
00
00
00
00
00
00
00
00
00
00
00
00
00
00
00
00
00
00
00
00
00
00
00
00
00
00
00
00
00
00
00
00
00
00
00
00
00
00
00
00
00
00
00
00
00
00
00
00
00
00
00
00
00
00
00
00
00
00
00
00
00
00
00
00
00
00
00
00
00
00
00
00
00
00
00
00
00
00
00
00
00
00
00
00
00
00
00
00
00
00
00
00
00
00
00
00
00
00
00
00
00
00
00
00
00
00
00
00
00
00
00
00
00
00
00
00
00
00
00
00
00
00
00
00
00
00
00
00
00
00
00
00
00
00
00
00
00
00
00
00
00
00
00
00
00
00
ff
00
00
00
00
00
00
00
00
00
00
00
00
00
00
00
00
00
00
00
00
fd
00
01
00
00
00
00
00
00
00
00
00
00
00
00
00
00
00
00
00
00
00
00
00
00
00
00
00
00
00
00
00
00
00
00
00
00
00
00
00
00
00
00
00
00
00
00
00
00
00
00
00
00
00
00
00
00
00
00
00
00
f3
0e
01
07
05
f2
f4
f9
0a
f3
ff
fd
00
0a
ff
0d
0f
fd
f1
02
f4
fd
fe
f1
09
05
08
0f
f6
04
f5
0a
0e
13
05
15
1a
0b
02
00
04
14
09
0f
f5
08
f4
08
f6
fa
fa
02
03
0c
fc
12
1a
25
1f
17
22
18
0a
15
17
0f
0d
16
12
0e
f7
fb
0a
0a
fc
0d
10
0a
13
36
27
39
56
49
48
4e
62
4b
4f
34
17
ff
ff
fe
fc
01
f1
0f
00
04
04
ff
ff
03
f8
05
fc
12
1a
27
16
fb
fc
eb
ec
c6
cd
f1
e7
00
fc
ee
04
ff
f9
ee
e4
d5
d6
e0
bb
b3
ca
c4
c2
cf
d6
b8
af
a2
94
bf
e1
f9
f8
f3
e2
e1
e5
e3
f5
f2
e8
cd
ab
80
8b
a8
ce
d4
e4
b1
b4
ac
af
b6
dd
05
fa
ee
01
e2
e6
f3
f2
ed
ef
cb
a7
84
b3
ce
ec
f3
0d
fd
ed
03
e9
e5
f5
fa
f2
03
e8
00
e8
f7
e8
ea
00
0a
12
28
0f
31
2c
30
2f
10
18
16
14
f9
f0
f4
0d
f2
ff
0b
08
04
00
08
f8
12
28
47
36
1d
1f
11
05
f1
00
04
0d
f7
f2
09
04
fd
fb
0c
03
16
15
11
0a
2e
1a
32
32
fd
f4
da
ec
fb
00
01
11
0e
10
f8
0b
0f
0d
0e
01
f3
0a
24
2a
3e
3a
17
ed
db
f0
0f
29
18
1b
29
27
1b
0c
f4
05
f6
0f
03
05
eb
f9
16
29
43
2d
ec
e7
1d
34
42
2a
34
4a
3e
2b
06
f4
f5
00
08
f3
0c
08
0d
12
18
37
3e
17
01
1f
2a
3f
42
44
51
32
23
19
f6
f3
fc
02
04
ff
f9
0b
02
0e
16
19
2c
27
39
23
2c
3a
3d
4a
4e
27
1a
fa
0e
fb
00
fa
fe
01
0c
fa
ee
ef
f5
ea
de
de
fc
ea
ff
0c
08
11
16
1c
0d
0a
06
f2
f9
fc
09
f7
ed
f4
ee
e3
cc
dd
d6
c7
ba
c3
bd
ce
e8
f8
0e
ff
0b
ff
03
f1
0d
06
0f
f0
f6
09
0a
f6
01
e8
e7
e9
f1
f9
f9
00
fc
f4
f6
fc
01
f1
0c
f9
02
b4
b4
b4
b4
b4
b4
b4
b4
b4
b4
b4
b4
b2
b1
b3
b4
b4
b4
b4
b4
b4
b4
b4
b4
b4
b4
b4
b4
b4
b4
b4
b4
b3
b3
b3
b2
ae
ac
ae
b1
b2
b3
b4
b4
b5
b4
b4
b4
b4
b4
b4
b4
b4
b4
b4
b3
b0
ac
a8
a5
a5
a2
9d
a5
ac
b2
b6
b8
be
b9
b4
b4
b4
b4
b4
b4
b3
b3
b4
ac
a0
97
98
97
8c
81
84
9d
b4
b9
bd
ba
b9
b6
b4
b4
b4
b4
b4
b4
b6
be
bc
af
a4
a4
b5
bb
b7
ab
a5
aa
ae
ab
b6
b5
af
af
b3
b4
b4
b4
b5
b7
bc
c2
b7
b7
bc
b0
bc
d0
df
d6
c2
b8
94
8a
a8
b0
b0
b0
b3
b4
b4
b4
b4
b5
b6
b2
af
ba
b8
ae
b1
cb
dc
d6
c1
ab
96
97
ae
af
b0
b0
b2
b4
b4
b4
b3
b2
b0
af
b3
b5
bc
c0
bf
c8
c3
b8
ae
9d
9c
aa
ae
ae
b2
b3
b3
b3
b4
b4
b3
b2
b1
ac
af
b7
be
c5
c6
c6
c1
ba
ae
97
88
a1
a4
a5
af
b3
b4
b4
b4
b4
b4
b3
af
a2
a9
b5
b6
b5
b9
c6
c9
ba
b0
98
81
96
a6
aa
b2
b4
b4
b4
b4
b4
b4
b0
a5
99
9c
9d
9b
9e
ad
b6
c8
d1
bf
9e
85
91
a9
bb
ba
b5
b4
b4
b4
b4
b4
b0
a8
a2
9b
92
92
96
9c
a8
c0
d7
bf
a4
97
95
ac
bc
bc
b8
b4
b4
b4
b4
b4
b3
af
a7
a3
9a
9a
9f
ad
af
bc
c6
aa
9e
98
9c
aa
b7
bc
ba
b5
b4
b4
b4
b4
b2
ae
a9
a7
a8
aa
af
b7
ac
9a
9a
93
9a
aa
a9
ae
b3
b6
b7
b5
b4
b4
b4
b3
ae
a7
a2
a5
ab
9d
a3
a7
9c
9a
9e
a6
ac
af
b0
b0
b1
b3
b4
b4
b4
b4
b4
b2
ae
ab
a9
ac
b8
b9
b5
be
be
bd
bb
be
ba
b3
b2
b4
b2
b3
b4
b4
b4
b4
b4
b3
b3
b3
b2
b4
ba
c1
c3
c3
bc
bb
bc
b9
b5
b3
b2
b3
b3
b3
b4
b4
b4
b4
b4
b4
b4
b4
b4
b4
b4
b6
b7
b6
b5
b6
b6
b4
b4
b4
b3
b3
b4
b4
b4
b4
b4
0b
04
0c
06
0b
06
0b
0b
07
00
05
0c
0b
04
07
00
0a
08
05
0d
0d
0a
01
ff
fe
fd
0a
0b
05
0c
0c
03
fc
02
0a
08
09
fe
06
00
04
00
0c
06
06
ff
07
0b
09
fe
07
05
0c
0b
00
03
00
fc
04
04
fc
0c
01
00
0a
fe
00
ff
07
04
09
03
fe
04
00
02
04
03
06
fd
fe
f8
f8
f4
ff
fd
f6
04
f8
f3
ff
02
fb
fa
fc
02
06
09
09
0d
0d
0d
05
06
04
00
ec
e7
e7
de
f9
05
02
00
fa
f4
e7
f6
f8
ff
0a
01
07
0f
0e
04
02
f2
e6
db
c3
c0
e1
01
07
00
00
fb
fb
fc
e9
e6
f7
06
fe
03
07
0b
04
f6
f4
e6
d5
d5
e3
09
23
31
2c
19
18
20
1b
0d
00
f1
fd
fe
ff
08
09
09
07
f7
fb
f6
e9
01
1c
17
0c
1f
2f
27
1f
18
2d
27
14
01
f7
07
01
05
0a
0a
14
17
06
04
13
21
17
ea
da
ed
0a
09
03
03
29
36
29
05
fc
0b
00
01
0a
02
1d
20
19
0e
18
1d
ed
b9
b1
de
03
08
0e
23
2b
35
26
04
ff
07
0d
04
06
08
1a
13
19
0c
09
fa
af
80
91
da
00
18
23
2a
21
1d
14
01
fb
01
09
0c
fa
07
0c
ff
0a
00
00
e3
b9
a8
c9
f8
16
1f
0a
08
0c
05
f3
f1
00
05
0d
0a
fb
03
03
f6
e5
f4
fb
05
f5
e8
f2
07
13
03
05
f1
ea
e3
ec
fe
0a
00
09
03
ff
fa
03
f6
e7
e8
ed
07
0b
08
15
1a
18
08
f4
e7
e5
de
f3
04
07
00
fe
00
0c
02
04
fd
08
fd
f7
fd
0f
0f
1a
14
01
ea
d8
d7
e1
f7
01
fd
00
00
00
fe
02
07
10
13
17
0d
01
0e
f8
fc
00
f9
ee
f0
ed
f4
f2
fc
fc
02
09
00
0b
05
0a
03
07
11
0e
10
08
0b
05
01
fc
fd
02
fa
f8
f6
f9
09
07
07
0d
0b
0a
fe
ff
05
04
00
05
0d
02
00
02
0c
0b
0a
08
0f
05
00
fd
06
07
0b
0d
0a
fb
0d
06
fa
0f
08
10
fa
0d
05
00
0d
0f
fa
fe
0f
0d
07
fe
0f
04
fc
10
11
08
13
07
0c
0a
05
02
0b
f9
0a
f6
06
f6
05
fe
0f
11
0d
09
0b
0a
fe
04
00
fd
0e
04
10
02
0c
f4
ee
df
cf
cb
d4
e3
e3
01
f7
0c
14
1b
15
16
0f
08
fc
01
03
0a
f8
f7
f5
e0
ce
c1
c5
cb
c9
d1
cf
c7
e4
05
05
22
2a
27
0d
0e
0a
07
11
08
f4
fc
e3
e3
d5
d8
d7
ce
ae
af
ba
ca
d3
e5
f8
02
0e
30
1f
00
0b
fa
10
07
fc
fb
f9
fc
fd
f8
db
e0
dd
b8
b3
c0
cd
d5
df
ea
01
2b
15
0d
05
08
04
09
00
ff
12
2c
21
33
42
5a
55
1c
f8
cb
d8
da
d0
d4
e1
14
11
0f
04
11
fa
0d
02
1c
49
41
4a
51
4f
66
7f
5d
39
23
f5
e3
d2
e9
fc
f8
ff
09
12
05
08
0c
13
37
4e
3f
24
fb
f3
1b
1c
37
4b
2a
0b
08
fd
15
1b
10
0e
fd
06
0b
05
0d
12
20
2c
fb
ea
ea
f4
ec
f1
01
07
0c
fa
13
1e
22
25
11
ff
f3
10
06
fa
08
f1
ed
ed
03
0e
fd
07
06
0e
12
02
02
05
15
2c
17
19
06
f5
fc
fa
12
0d
01
e7
d8
f3
00
16
1c
18
12
03
1c
f4
e5
04
15
16
05
f6
e8
df
f8
06
10
08
f4
e7
cd
e5
ef
f9
eb
e8
d9
e4
f5
eb
ea
00
00
fe
f8
db
e8
f4
fa
0c
fc
fe
fa
da
d0
e7
e6
fe
ee
f2
ed
e3
fd
01
0d
ff
f0
f0
dc
e9
e7
f2
0f
03
0c
fc
0b
f8
f2
e2
f0
ee
f1
eb
ef
eb
ef
f6
f8
ff
f4
f8
fc
ec
f8
fa
fe
08
10
08
0b
0e
01
f7
fa
f4
f9
fa
de
e8
e3
f1
fd
00
01
07
03
f8
07
06
0f
12
0e
00
fc
06
0b
0c
03
01
05
e7
f1
f1
e5
ec
fa
fb
09
04
04
03
05
0e
ff
ff
04
03
fc
0f
fd
fe
01
01
fa
02
03
fd
fb
f9
0f
0c
0e
0e
07
09
06
10
fc
fb
00
00
00
00
00
00
00
00
00
00
00
00
00
00
00
00
00
00
00
00
00
00
00
00
00
00
00
00
00
00
00
00
00
00
00
00
00
00
00
00
00
00
00
00
00
00
00
00
00
00
00
00
00
00
00
00
00
00
00
00
00
00
00
00
00
00
00
00
00
00
00
00
00
00
00
00
00
00
00
00
00
00
00
00
00
00
00
00
00
00
00
00
00
00
00
00
00
00
00
00
00
00
00
00
00
00
00
00
ff
00
00
00
00
00
00
00
00
00
00
00
00
00
00
00
00
00
00
00
00
00
00
00
00
00
00
00
00
00
00
00
00
00
00
00
00
00
00
00
00
00
00
00
00
00
00
00
00
00
00
00
00
00
00
00
00
00
00
00
00
00
00
00
00
00
00
00
00
00
00
00
00
00
00
00
00
00
00
00
00
00
00
00
00
00
00
00
00
00
00
00
00
00
00
00
00
00
00
00
00
00
fd
00
00
00
00
00
00
00
00
00
00
00
00
00
00
00
00
00
00
00
00
00
00
fb
fb
00
00
00
00
00
00
00
00
00
00
00
00
00
00
00
00
00
00
00
00
00
00
f9
fd
00
00
00
00
00
00
00
00
00
00
00
fe
fd
00
00
00
00
00
00
00
00
00
ff
ff
00
00
00
00
00
00
00
00
00
00
00
00
ff
00
00
00
00
00
00
00
fe
ff
00
00
00
00
00
00
00
00
00
00
00
00
00
00
00
ff
ff
ff
ff
00
00
ff
00
00
00
00
00
00
00
00
00
00
00
00
00
00
00
00
00
00
00
00
00
00
00
00
00
00
00
00
00
00
00
00
00
00
00
00
00
00
00
00
00
00
00
00
00
00
00
00
00
00
00
00
00
00
00
00
00
00
00
00
00
00
00
00
00
00
00
00
00
00
00
00
00
00
00
00
00
00
00
00
00
00
00
00
00
00
00
00
00
00
00
00
00
00
00
00
00
00
00
00
00
00
00
00
00
f1
f1
04
f6
05
f1
03
ed
f7
f1
fe
06
ed
08
01
f9
03
00
ed
02
f2
03
ee
f8
05
f7
f5
f9
f4
ea
f3
fe
ee
ef
e6
de
eb
ec
ed
df
ea
fd
e5
f6
01
ef
ff
07
08
fe
fa
f3
fd
01
f1
e6
d3
cd
e9
d8
f3
fd
ea
f8
e5
f0
e8
eb
f1
f2
f2
fb
f5
f7
02
08
02
ff
f9
f2
f1
05
03
fe
f4
f1
02
fd
0b
1b
11
0a
04
f3
08
06
08
03
0a
04
06
0f
22
27
31
2b
2a
14
fe
0d
19
37
53
49
47
33
0c
0d
01
fd
02
f9
fb
02
19
29
26
31
2c
19
1d
1d
ef
09
31
58
6d
62
4b
46
25
0a
f4
fd
ec
03
08
13
13
14
14
02
02
02
0b
0b
e4
1b
58
58
6b
54
35
20
14
03
fe
f1
fd
ec
ff
04
05
04
10
16
10
40
47
27
19
4f
4d
45
32
22
13
07
00
ff
0b
f4
ec
fd
f7
07
1d
11
0c
09
06
2f
2e
ff
e1
22
37
17
07
ff
06
f0
ef
f1
f0
ee
f6
f6
03
03
24
11
0f
f1
d8
ef
f1
cd
9d
03
3b
38
27
0b
00
ec
e4
e2
fb
fd
ef
ec
08
02
1b
0b
20
0a
d8
b9
ef
cb
c3
3b
5a
4c
01
08
02
ec
ee
e1
fa
f0
05
f6
0d
07
0d
12
20
f5
ee
cb
f0
07
02
23
1b
01
e7
f4
0f
fe
d7
ee
eb
04
ef
fa
f8
15
16
2e
0e
02
e6
b8
a6
b9
b5
b9
b6
b9
e1
db
ef
f2
e5
f2
ed
fc
f8
fc
f3
0b
07
10
f9
fe
e6
bf
ab
8f
80
96
b8
b5
be
e7
ec
e4
ed
e9
00
fa
ed
ec
f3
06
f6
f8
0a
f6
ec
04
0a
14
0a
11
0d
f2
ea
f5
f6
f0
f2
eb
05
00
03
f9
06
f5
f3
0f
0f
28
25
28
39
4e
4b
32
35
2f
19
06
07
08
f6
ef
fc
f3
f8
eb
07
0a
fa
05
0a
07
0d
1e
23
2d
22
2d
21
20
16
09
f7
03
f6
ec
f4
01
f9
00
ed
fa
fa
fb
f7
00
0b
f2
f8
00
0c
02
f2
ff
fe
f5
09
ec
f7
04
fa
01
b0
b0
b0
b0
b0
b0
b0
b0
b0
b0
b0
b0
b0
b0
b0
b0
b0
b0
b0
b0
b0
b0
b0
b0
b0
b0
b0
b0
b0
b0
b0
b0
b0
b0
b2
b3
b2
b2
b2
b3
b2
b2
b3
b2
b0
b0
b0
b0
b0
b0
b0
b0
b1
b1
b1
b2
b0
b1
b6
bd
c1
ba
ba
bd
b9
b7
b5
b2
b0
b0
b0
b0
b0
b0
b0
b1
b2
b1
b4
b8
ba
bc
c7
d7
dc
d4
cb
cd
d5
dc
cf
ba
ac
a7
a8
ad
b0
b0
b2
b3
b3
b1
c3
cd
d6
e1
f0
f1
f1
e1
d9
ce
da
f3
e2
c1
b8
ab
9e
a3
b0
b0
b3
b7
bb
bb
ca
c6
d5
ec
ee
e2
ce
c5
d6
e7
dd
d5
b8
b3
b8
ba
b1
af
b0
b1
b4
b9
c0
bb
b7
b4
d6
f2
f0
ee
e6
dd
e8
fa
f0
d0
b0
b7
b5
b7
b5
b2
b0
b1
b2
bb
ba
bb
ce
d6
ed
fa
fa
f3
ee
f1
f6
f7
ea
c2
b2
b9
b8
b8
b4
b1
b0
b0
b1
b9
ba
bc
dc
de
d5
d3
de
de
f4
f9
f5
ed
db
b5
a4
a9
af
b0
b1
b0
b0
b0
b0
b8
bb
c0
d2
d4
ad
80
a1
c1
db
eb
ed
ee
d7
be
ab
a8
ac
ae
b0
b0
b0
b0
b0
b7
be
c9
c8
c1
9e
98
b3
c9
d0
d4
dd
ea
de
d5
c5
bc
b3
ad
b0
b0
b0
b0
af
ba
c2
c2
c6
c8
bc
ca
d4
c9
ca
e3
df
e1
dd
db
d3
c1
b3
ae
b0
b0
b0
b0
af
bd
cb
c9
ce
ca
ca
db
db
d3
ef
f9
eb
d8
c8
d3
d0
bf
b1
af
b0
b0
b0
b0
af
b5
c2
cb
d8
de
e4
d3
c4
de
f4
f4
ec
df
c5
b7
c3
bc
b2
af
af
b0
b0
b0
b0
b0
b3
c0
d2
d9
d9
c4
c1
c5
d2
cb
d9
da
bb
a7
b7
b4
b0
b0
b0
b0
b0
b0
b0
b0
b5
c3
c9
c8
bc
c1
c9
ad
8e
8a
a9
c0
b8
b5
b6
b0
b0
b0
b0
b0
b0
b0
b0
b0
b5
c2
c1
b8
b8
c2
d0
c9
a8
97
a3
b9
bd
b9
b4
b0
b0
b0
b0
b0
b0
b0
b0
b0
b0
b1
b1
b0
b2
b5
b5
b3
b2
b4
b6
b6
b3
b0
b0
b0
b0
b0
b0
b0
a7
a7
a7
a7
a7
a7
a7
a7
a7
a7
a7
a7
a7
a7
a7
a7
a7
a7
a7
a7
a7
a7
a7
a7
a7
a7
a7
a7
a7
a7
a6
a5
a6
a7
a7
a5
a5
a5
a3
a1
a2
a6
a7
a7
a7
a7
a7
a7
a7
a7
a7
a7
a7
a7
a1
9b
a1
a2
a3
a1
a8
ab
8e
80
8e
a4
a9
a8
a8
a7
a7
a7
a7
a7
a7
a7
a7
aa
a7
b6
d3
de
dd
e6
ec
d4
cc
c8
cd
d2
ca
c0
b2
a9
a7
a7
a7
a7
a7
a9
b2
be
c4
e2
f2
f9
fc
fe
fd
f1
f2
f8
f6
ea
dc
d1
be
ac
a8
a7
a7
a7
a7
ae
bb
cb
d9
eb
ef
f5
fa
f8
f7
f2
eb
ed
ea
d4
d1
d3
c2
aa
a8
a7
a7
a7
a9
ab
b1
c3
d5
e0
e2
f3
fa
fb
fb
fa
f4
e7
d6
c9
cb
d1
c1
ab
a8
a7
a7
a7
a8
a9
b1
c2
cb
d1
e0
f2
f5
f8
fa
fa
fa
f9
e8
d5
cc
ca
b7
a9
a8
a7
a7
a7
a2
a3
b6
c7
c6
c7
e9
f6
f4
f8
f9
f7
f9
f8
ee
d5
c7
c1
b0
a6
a7
a7
a7
a7
9e
a1
bd
be
a4
bc
e9
fc
fc
f9
f4
f8
f9
f3
df
c1
b4
b9
b1
a7
a7
a7
a7
a7
9e
9e
b7
94
9e
c6
e1
f3
fc
fc
fb
fc
fd
f5
e4
d5
c7
ca
b3
a7
a7
a7
a7
a7
a3
a7
b9
aa
ae
b9
c7
d9
ef
fb
fd
fc
fc
f3
eb
d9
ca
c8
b2
a0
a5
a7
a7
a7
a7
b4
cc
d1
be
bf
d0
e5
eb
f5
f9
f5
f2
f4
f7
d6
c5
bc
a3
91
a2
a7
a7
a7
a7
b8
cb
da
dd
d9
e1
ec
ed
f1
f2
f5
f1
f1
e8
be
b9
be
ab
a2
a6
a7
a7
a7
a7
ad
b9
dc
ee
ee
ec
ee
f1
f5
f8
f5
ed
e6
d0
b9
c0
bb
ab
a7
a7
a7
a7
a7
a7
ab
b7
c8
d9
dd
e4
e4
d6
d2
e3
e8
e2
d9
c2
af
b0
ab
a7
a7
a7
a7
a7
a7
a7
ad
ae
ad
b0
b4
b5
b3
a6
a2
a1
c2
c0
b6
a9
93
a1
a7
a7
a7
a7
a7
a7
a7
a7
a7
a7
a7
a7
a6
a6
a7
a3
9f
9f
a8
a7
a7
a8
97
9d
a7
a7
a7
a7
a7
91
90
91
91
8f
90
8f
8f
8f
90
90
90
91
90
90
90
8f
90
91
90
8f
90
90
8f
91
8f
90
91
90
90
8f
91
91
91
91
93
95
95
91
94
93
95
94
90
8f
8e
91
90
91
90
91
8f
91
91
94
98
99
9a
9e
ae
ae
a1
97
9a
9e
9c
8f
80
86
8e
8f
8f
8f
8f
8f
91
94
99
a0
a5
a6
a4
ad
c5
c4
b3
b0
aa
ae
a5
94
83
8b
91
92
90
90
90
8f
91
90
97
9f
ae
bf
c5
d3
e9
ef
d8
c9
c4
d1
db
ce
af
9c
96
96
90
90
91
90
90
8f
96
b0
ce
e7
ef
fb
fe
fc
f8
f6
f6
f6
eb
cf
af
8e
90
91
90
90
8e
8e
8e
89
96
ae
ca
ea
f2
f4
ed
e9
e1
f1
fd
fe
f0
c2
8d
8d
8f
90
90
8f
8f
8e
8f
89
89
97
c1
d6
e5
d2
d7
e0
f0
fa
fe
fa
de
b3
9e
90
91
90
8f
90
90
90
8e
8f
9a
a8
d0
e7
e6
d8
e0
e4
f7
fa
f8
f1
c0
be
b3
9e
94
90
8f
91
8f
90
98
b4
ac
ac
d4
f1
f1
f0
f7
fe
00
fd
ed
eb
e5
c4
ae
a1
93
8f
90
8f
91
8e
a6
ce
b7
b5
d2
f2
f6
f6
fa
ff
ff
f9
eb
f2
f1
c7
a8
a0
98
91
90
91
8f
90
a4
ce
e0
e7
eb
f7
f5
f0
f2
fc
f9
df
ce
db
d8
c7
c1
b3
9a
91
8f
90
8f
8f
a2
bc
c8
cd
d3
e6
e3
de
ef
fb
f4
ce
ab
b4
a6
af
c1
ae
91
90
91
8f
90
90
96
9e
9d
b3
cb
e0
eb
e1
da
ec
ec
d1
b0
9a
9c
a8
a7
98
90
90
8f
91
90
8f
91
8b
87
9a
b8
d7
e6
e2
e4
eb
e5
c6
9d
96
a3
a3
a2
9a
91
90
90
90
90
90
91
90
91
9a
b9
c3
b5
a8
c7
dd
c9
9e
8f
8f
97
91
93
93
90
8f
90
90
91
8f
90
90
8f
94
a2
a7
91
8a
98
b1
a8
a0
9c
8c
8e
8e
8f
8f
8f
90
91
91
8f
90
8f
90
90
90
90
91
90
8f
91
91
97
99
97
90
92
91
8f
90
90
8f
91
b9
b9
ba
ba
ba
b9
ba
b9
b9
b9
ba
b8
b9
ba
b9
ba
ba
ba
b8
ba
b9
b9
b9
ba
ba
b9
ba
ba
ba
ba
ba
ba
ba
ba
b9
ba
bc
c0
c0
c2
c6
c2
bc
ba
b9
ba
ba
ba
ba
ba
ba
ba
b9
c4
c8
c3
bc
c0
c4
d3
df
df
dc
d7
d9
d5
bf
bc
bc
ba
b9
ba
b9
ba
b9
b8
bb
d0
dd
ea
f4
f9
f9
fe
ff
00
00
fd
f9
e9
d3
c2
bd
b9
ba
b9
ba
ba
b6
b3
b0
bc
e0
fe
00
fe
00
02
01
01
01
00
00
f8
dd
ce
c2
ba
ba
b9
b9
b8
b7
b0
aa
cf
f1
fa
ff
01
01
00
00
ff
00
00
00
fc
ef
d7
c6
ba
bb
ba
b9
b7
b6
b8
d1
e4
e2
ea
ee
fd
ff
fe
fc
fc
00
00
00
fb
e5
d0
cb
be
b9
b9
b8
b6
b8
b9
dc
e6
d8
e4
e5
f9
fe
fa
ed
fb
00
00
03
fc
e6
bf
c1
c1
b9
b9
b9
b9
bc
b8
d0
f6
f1
f1
fe
00
00
f3
fe
00
00
00
00
f6
d8
af
b7
ba
b9
b8
b9
b8
c0
c7
bb
ca
df
f1
fa
00
00
fe
00
00
00
fe
fa
f8
ca
ae
bc
bc
b9
b9
b9
b9
bf
d0
cf
c1
db
f6
f8
fe
ff
00
00
00
00
fd
f7
f4
dd
d3
c8
b9
b7
b8
b9
b9
bc
c8
df
ea
ef
fd
fe
02
01
ff
fe
ff
fd
fb
f4
f5
e5
de
dd
c3
b5
b8
ba
bc
be
c1
d8
ef
f5
fc
fe
01
01
fc
00
fe
f9
fb
fd
f8
e8
e6
e2
c9
bb
ba
b9
ba
be
c3
d8
f3
fa
fe
00
03
01
ff
00
fe
fe
ff
fd
fd
f5
e4
ca
be
ba
ba
b9
b9
ba
bd
d7
ed
f9
ff
02
02
01
01
fd
fd
fe
fe
fd
fd
ea
ce
b9
ba
ba
ba
ba
b9
ba
c1
d3
e3
f1
f9
00
01
01
fa
e9
d3
ea
f1
e8
d9
d0
cb
bb
b9
b9
b9
ba
b9
ba
bb
c0
cc
d7
dd
eb
f6
e8
c9
80
87
d3
d9
bd
b6
c0
be
b9
b9
ba
ba
ba
b9
ba
b9
ba
ba
ba
b9
ba
c0
b9
b7
a9
aa
bd
c2
ba
bc
bd
b9
b9
ba
ba
ba
01
09
05
02
fa
09
fe
11
06
07
02
05
fb
0c
fa
05
f9
11
0c
0b
03
01
0c
0d
ff
03
ff
0e
09
fb
0d
ff
0b
fe
12
0f
0b
0c
0e
0e
0e
fd
13
fe
f9
fc
06
0c
09
09
10
06
03
03
fd
ff
01
0b
fc
0a
03
11
0a
08
18
10
02
ff
0b
02
09
11
fc
0c
ff
ff
0d
00
03
13
fe
e9
d0
ca
dc
f3
f9
ff
f6
f7
00
f6
f9
00
02
00
11
fe
08
0a
02
12
02
01
f4
e5
ca
b3
c1
ab
b1
c5
db
e6
f6
ec
e6
f3
05
fa
f9
0b
09
0a
0c
0c
0a
fe
f2
e9
eb
e1
01
fb
f9
e9
da
ea
e9
e3
e6
e1
02
01
10
0d
0e
19
0f
fb
f2
e4
df
ee
0a
48
4e
5d
44
25
fd
f5
f5
e6
d7
df
fd
01
f9
0c
06
14
0e
f0
e6
d4
d1
e3
ff
ed
cc
f6
01
02
f4
e2
d1
f7
eb
fd
02
10
11
fa
0a
05
08
ec
eb
d6
d2
e7
ec
97
80
99
ca
e6
d8
e5
fc
17
0a
fa
f8
fa
0d
fe
0d
06
24
1a
0f
0a
05
ed
c9
92
99
c3
dd
ea
19
36
34
2f
2a
11
0a
11
08
01
f7
10
2f
3a
37
18
10
ff
cf
b3
d2
e3
05
3a
5f
4f
30
25
0c
16
0e
03
06
05
04
18
24
35
30
28
2f
33
24
1e
1b
0e
2a
41
43
2a
29
17
0f
13
17
08
10
03
fe
fe
14
f8
12
2f
33
5a
65
48
23
17
35
2c
1b
07
0c
0e
0e
0f
0f
09
fe
0b
fb
0b
03
e6
d9
ef
0b
29
20
1b
0f
10
0e
13
04
0c
08
0c
15
13
08
0f
fe
05
09
fd
00
f8
e3
e2
da
ce
b6
a5
b1
e6
ef
fd
fc
14
17
13
10
10
fd
0f
0c
f8
fc
fa
0d
fc
05
e3
d1
ba
b9
b3
c2
dc
e5
e8
f8
f2
04
11
0e
12
10
10
fd
f9
08
0a
fc
04
f6
f7
f2
f2
e0
f9
ec
ff
f1
e7
ec
04
f5
0a
05
0a
01
06
0d
0f
f9
fe
0c
06
06
f9
04
0d
08
ff
ff
0a
fa
03
0a
ff
0f
fb
0b
11
07
09
00
00
00
00
00
00
00
00
00
00
00
00
00
00
00
00
00
00
00
00
00
00
00
00
00
00
00
00
00
00
00
00
00
00
00
00
00
00
00
00
00
00
00
00
00
00
00
00
00
00
00
00
00
00
00
00
00
00
00
00
00
00
00
00
00
00
00
00
00
00
00
00
00
00
00
00
00
00
00
00
00
00
00
00
00
00
00
00
00
00
00
00
00
00
00
00
00
00
00
00
00
00
00
00
00
00
00
00
00
00
00
00
00
00
00
00
00
00
00
00
00
00
00
00
00
00
00
00
00
00
00
00
00
00
00
00
00
00
00
00
00
00
00
00
00
00
00
00
00
00
00
00
00
00
00
00
00
00
00
00
00
00
00
00
00
00
00
00
00
00
00
00
00
00
00
00
00
00
00
00
00
00
00
00
00
00
00
00
00
00
00
00
00
00
00
00
00
00
00
00
00
00
00
00
00
00
00
00
00
00
00
00
00
00
00
00
00
00
00
00
00
00
00
00
00
00
00
00
00
00
00
00
00
00
00
00
00
00
00
00
00
00
00
00
00
00
00
00
00
00
00
00
00
00
00
00
00
00
00
00
00
00
00
00
00
00
00
00
00
00
00
00
00
00
00
00
00
00
00
00
00
00
00
00
00
00
00
00
00
00
00
00
00
00
00
00
00
00
00
00
00
00
00
00
00
00
00
00
00
00
00
00
00
00
00
00
00
00
00
00
00
00
00
00
00
00
00
00
00
00
00
00
00
00
00
00
00
00
00
00
00
00
00
00
00
00
00
00
00
00
00
00
00
00
00
00
00
00
00
00
00
00
00
00
00
00
00
00
00
00
00
00
00
00
00
00
00
00
00
00
00
00
00
00
00
00
00
00
00
00
00
00
00
00
00
00
00
00
00
00
00
00
00
00
00
00
00
00
00
00
00
00
00
00
00
00
00
00
00
00
00
00
00
00
00
00
00
00
00
00
00
00
a1
a1
a1
a1
a1
a1
a1
a1
a1
a1
a1
a1
a1
a1
a1
a1
a1
a1
a1
a1
a1
a1
a1
a1
a1
a1
a1
a1
a1
a1
a1
a1
a1
a1
a1
a1
a0
a2
a2
a2
a2
a2
a2
a1
a1
a1
a1
a1
a1
a1
a1
a1
a1
a1
a1
a1
a1
a0
9f
9d
9d
af
ad
ab
aa
ab
a6
a2
a1
a1
a1
a1
a1
a1
a1
a1
a0
a0
a0
9f
9a
97
93
88
9e
b6
b4
b7
b0
b6
ae
a4
a2
a1
a1
a1
a1
a1
a1
a1
a1
a2
a8
a6
99
97
8f
80
ad
b8
ab
ae
a0
9e
a5
9e
a3
a2
a2
a1
a1
a1
a1
a1
a1
a9
b5
aa
a3
b4
c4
d2
e1
cc
c1
cb
b6
9e
9e
a3
a6
a4
a3
a1
a1
a1
a2
a2
a5
ab
ab
a6
9e
b6
cb
db
df
d6
df
e6
c8
a6
9d
a6
a6
a5
a3
a1
a1
a1
a1
a2
a7
a9
a9
ab
95
a1
a6
bc
d1
db
d6
d9
c7
ae
9e
a2
a6
a4
a2
a1
a1
a1
a1
a1
a3
a5
aa
b7
ac
9d
9c
ba
cd
c2
a9
a7
b7
bf
ad
9f
a3
a2
a1
a1
a1
a1
a1
a2
a1
a1
a9
bd
b4
9b
a4
b0
ba
c0
aa
9c
a1
b6
af
9d
a0
a2
a1
a1
a1
a1
a2
a2
a4
a2
a4
b0
a8
af
af
aa
ba
bb
9d
8c
92
ac
b4
a6
a1
a1
a2
a1
a1
a1
a2
a6
ae
aa
a1
a7
b1
b3
b6
a9
bf
b3
8e
8c
96
b4
b6
b0
a5
a2
a2
a2
a1
a1
a2
ab
b3
b2
a7
aa
af
b5
a6
a7
cd
b8
91
9c
ae
b0
ab
b4
a9
a2
a2
a2
a1
a1
a1
a6
b1
b3
ae
b7
ac
a0
ab
ad
c6
9c
8f
a6
a8
9d
a1
b1
a7
a2
a2
a1
a1
a1
a1
a3
a9
aa
a7
b6
b0
b0
b4
af
a4
89
97
99
91
94
9f
ad
a8
a1
a1
a1
a1
a1
a1
a3
a6
a5
a3
ae
b0
ae
ad
ad
a2
99
9f
9e
9e
a1
a4
ad
a8
a2
a1
a1
a1
a1
a1
a2
a3
a4
aa
af
a9
a6
aa
ad
ab
a7
ab
a8
a5
a6
a8
a9
a4
a1
a1
a1
a1
a1
a1
a1
a1
a1
a2
a4
a3
a2
a2
a2
a2
a3
a5
a3
a2
a1
a1
a1
a1
a1
a1
a1
f1
02
0a
fd
09
f3
01
f4
f6
f2
f8
f2
f5
ef
00
fc
02
03
f7
06
fb
fe
f8
f6
fe
fd
06
02
0a
ff
f6
fe
08
03
04
f7
07
f7
f6
f2
e9
fb
ea
fd
02
07
fd
f7
fe
09
f2
f5
ff
00
0c
12
0c
18
24
2b
23
12
fd
f5
ed
e2
f1
f3
f7
fd
f1
ef
f7
f0
fb
03
03
10
27
14
16
04
1f
1c
26
06
07
ee
f4
e5
e9
d0
cf
f4
00
fa
f0
f6
fc
11
12
23
1c
07
f7
04
0b
29
22
27
2d
25
0e
05
ea
ce
b6
e5
f3
00
03
08
05
1f
2d
26
1f
05
fb
11
2c
5a
64
53
2f
23
22
1a
03
e4
bc
c6
f9
f2
f2
f1
fa
20
27
30
01
01
f5
0e
09
1e
6d
58
15
11
09
26
13
f5
d5
db
ec
0a
02
fc
00
1d
30
0f
fd
f7
f7
dc
bd
cb
26
1d
00
09
2b
45
3a
03
ff
04
fc
f8
02
07
01
05
15
ea
dd
f2
f2
b1
80
b5
10
01
f2
fd
0c
2b
0a
f3
f7
0c
05
01
0a
f8
07
fe
06
fa
f2
ee
da
a7
a1
f4
08
e4
f2
f5
00
f6
0a
e6
e9
ff
09
0c
fe
0b
09
0c
16
f9
02
f0
f4
de
02
26
fb
ff
07
04
ff
07
11
0c
19
17
0c
04
09
01
01
10
18
ea
ed
f1
01
fb
fd
0e
f1
f9
fd
f6
06
10
21
21
23
2a
0d
fc
ee
00
01
20
06
eb
eb
d5
db
b2
b3
c1
c6
c2
f9
ed
fe
14
11
0c
18
0e
f6
08
f8
08
fc
12
1f
07
fe
f7
d2
a9
82
93
a9
c0
fd
04
12
26
0f
0e
11
ff
03
f4
f5
f5
ff
0c
20
13
13
0a
0d
e9
e5
d1
e9
f6
08
09
0e
18
05
03
fd
fb
09
f2
f1
08
06
fb
09
09
1c
01
05
fa
f7
f1
ff
fa
04
0b
00
fa
08
03
fb
0a
f1
09
fe
fa
07
fa
f5
17
09
18
19
24
28
21
2f
12
1b
0d
03
fa
0d
05
09
fe
f6
0a
08
f5
02
01
09
07
f9
0b
fb
fc
ff
0f
02
16
ff
04
fd
09
fc
ee
0a
f4
fe
fa
00
00
00
00
00
00
00
00
00
00
00
00
00
00
00
00
00
00
00
00
00
00
00
00
00
00
00
00
00
00
00
00
00
00
00
00
00
00
00
00
00
00
00
00
00
00
00
00
00
00
00
00
00
00
00
00
00
00
00
00
00
00
00
00
00
00
00
00
00
00
00
00
00
00
00
00
00
00
00
00
00
00
00
00
00
00
00
00
00
00
00
00
00
00
00
00
00
00
00
00
00
00
00
00
00
00
00
00
00
00
00
00
00
00
00
00
00
00
00
00
00
00
00
00
00
00
00
00
00
00
00
00
00
00
00
00
00
00
00
00
00
00
00
00
00
00
00
00
00
00
00
00
00
00
00
00
00
00
00
00
00
00
00
00
00
00
00
00
00
00
00
00
00
00
00
00
00
00
00
00
00
00
00
00
00
00
00
00
00
00
00
00
00
00
00
00
00
00
00
00
00
00
00
00
00
00
00
00
00
00
00
00
00
00
00
00
00
00
00
00
00
00
00
00
00
00
00
00
00
00
00
00
00
00
00
00
00
00
00
00
00
00
00
00
00
00
00
00
00
00
00
00
00
00
00
00
00
00
00
00
00
00
00
00
00
00
00
00
00
00
00
00
00
00
00
00
00
00
00
00
00
00
00
00
00
00
00
00
00
00
00
00
00
00
00
00
00
00
00
00
00
00
00
00
00
00
00
00
00
00
00
00
00
00
00
00
00
00
00
00
00
00
00
00
00
00
00
00
00
00
00
00
00
00
00
00
00
00
00
00
00
00
00
00
00
00
00
00
00
00
00
00
00
00
00
00
00
00
00
00
00
00
00
00
00
00
00
00
00
00
00
00
00
00
00
00
00
00
00
00
00
00
00
00
00
00
00
00
00
00
00
00
00
00
00
00
00
00
00
00
00
00
00
00
00
00
00
00
00
00
00
00
00
00
00
00
00
00
00
00
00
00
00
00
00
00
00
00
00
00
00
00
b1
b1
b1
b1
b1
b1
b1
b1
b1
b1
b1
b1
b1
b1
b1
b1
b1
b2
b7
b3
b1
b1
b1
b1
b1
b1
b1
b1
b1
b1
b1
b1
b0
b1
b2
b1
b1
b3
b3
b2
b3
bb
c1
ba
b1
b1
b1
b1
b1
b1
b1
b1
b1
b1
b2
b1
aa
a5
a7
aa
ad
b5
b6
bb
ca
d0
ca
be
b3
b1
b1
b1
b1
b1
b0
af
b1
b7
c5
dc
e0
d7
c4
b5
ba
c3
d7
e8
f2
ef
e2
ca
b5
b1
b1
b1
b1
b0
a7
9f
ac
b3
aa
d3
d9
db
d9
de
e6
ef
f5
f6
f9
fa
ea
c7
b4
b6
b2
b1
ad
9b
9e
a2
af
ad
83
b0
c4
de
f9
00
00
00
00
fc
fa
f8
de
c4
b7
b5
b2
b2
ab
8b
8b
92
ab
bb
b5
fd
00
00
ff
fa
ff
00
00
00
eb
db
cd
bd
ad
b1
b1
b1
ae
9b
8d
90
96
a7
e1
fe
fa
f4
fe
ff
ff
fc
00
00
ea
cf
d4
bf
af
b1
b1
b1
b1
ad
a9
a8
a0
b5
f2
f9
f9
f5
f9
f4
e3
fa
00
ff
e9
dc
db
bb
b0
b2
b1
b1
b1
b1
b4
ba
c3
c7
d9
dd
f3
fb
f8
ef
e1
f9
00
ef
cf
e4
e0
ba
b6
b1
af
af
b1
b1
b3
c1
d5
d4
ca
d1
f9
fe
fb
f4
f4
fe
ff
d1
b8
ce
cb
ac
a9
a4
a2
a7
b1
b1
b7
c5
d1
d0
d5
d0
ea
f5
f1
ea
f8
ff
fe
d6
cd
ca
b5
98
a9
aa
ae
b0
b1
b1
b8
c3
cb
d6
e5
e3
e1
e1
dd
e8
fa
00
fc
ca
d0
d9
d1
b2
b0
b0
b1
b1
b1
b1
b2
b8
c1
da
ec
f3
f5
f4
f1
f1
ec
f7
ef
af
b0
c4
ca
c4
b3
af
b1
b1
b1
b1
b0
b0
b8
cf
d5
dd
ed
f2
f3
f7
e9
fb
fc
dc
d4
cd
c8
b9
b1
b1
b1
b1
b1
b1
b1
b1
b2
ba
b4
ba
d9
e0
e7
f0
e2
fb
f8
a3
9e
b9
b8
af
b0
b1
b1
b1
b1
b1
b1
b1
b1
b0
ad
af
ba
bc
c2
cb
c2
ef
d6
80
8b
b2
b8
b2
b1
b1
b1
b1
b1
b1
b1
b1
b1
b1
b0
b2
b4
b2
b1
b8
c6
ef
ca
ab
a8
b0
b2
b1
b1
b1
b1
b1
00
00
00
00
00
00
00
00
00
00
00
00
00
00
00
00
00
00
00
00
00
00
00
00
00
00
00
00
00
00
00
00
00
00
00
00
00
00
00
00
00
00
00
00
00
00
00
00
00
00
00
00
00
00
00
00
00
00
00
00
00
00
00
00
00
00
00
00
00
00
00
00
00
00
00
00
00
00
00
00
00
00
00
00
00
00
00
00
00
00
00
00
00
00
00
00
00
00
00
00
00
00
00
00
00
00
00
00
00
00
00
00
00
00
00
00
00
00
00
00
00
00
00
00
00
00
00
00
00
00
00
00
00
00
00
00
00
00
00
00
00
00
00
00
00
00
00
00
00
00
00
00
00
00
00
00
00
00
00
00
00
00
00
00
00
00
00
00
00
00
00
00
00
00
00
00
00
00
00
00
00
00
00
00
00
00
00
00
00
00
00
00
00
00
00
00
00
00
00
00
00
00
00
00
00
00
00
00
00
00
00
00
00
00
00
00
00
00
00
00
00
00
00
00
00
00
00
00
00
00
00
00
00
00
00
00
00
00
00
00
00
00
00
00
00
00
00
00
00
00
00
00
00
00
00
00
00
00
00
00
00
00
00
00
00
00
00
00
00
00
00
00
00
00
00
00
00
00
00
00
00
00
00
00
00
00
00
00
00
00
00
00
00
00
00
00
00
00
00
00
00
00
00
00
00
00
00
00
00
00
00
00
00
00
00
00
00
00
00
00
00
00
00
00
00
00
00
00
00
00
00
00
00
00
00
00
00
00
00
00
00
00
00
00
00
00
00
00
00
00
00
00
00
00
00
00
00
00
00
00
00
00
00
00
00
00
00
00
00
00
00
00
00
00
00
00
00
00
00
00
00
00
00
00
00
00
00
00
00
00
00
00
00
00
00
00
00
00
00
00
00
00
00
00
00
00
00
00
00
00
00
00
00
00
00
00
00
00
00
00
00
00
00
00
00
00
00
00
00
00
00
00
00
00
00
00
00
00
00
00
00
00
00
00
00
00
00
00
00
00
00
00
00
00
00
00
00
00
00
00
00
00
00
00
00
00
00
00
00
00
00
00
00
00
00
00
00
00
00
00
00
00
00
00
00
00
00
00
00
00
00
00
00
00
00
00
00
00
00
00
00
00
00
00
00
00
00
00
00
00
00
00
00
00
00
00
00
00
00
00
00
00
00
00
00
00
00
00
00
00
00
00
00
00
00
00
00
00
00
00
00
00
00
00
00
00
00
00
00
00
00
00
00
00
00
00
00
00
00
00
00
00
00
00
00
00
00
00
00
00
00
00
00
00
00
00
00
00
00
00
00
00
00
00
00
00
00
00
00
00
00
00
00
00
00
00
00
00
00
00
00
00
00
00
00
00
00
00
00
00
00
00
00
00
00
00
00
00
00
00
00
00
00
00
00
00
00
00
00
00
00
00
00
00
00
00
00
00
00
00
00
00
00
00
00
00
00
00
00
00
00
00
00
00
00
00
00
00
00
00
00
00
00
00
00
00
00
00
00
00
00
00
00
00
00
00
00
00
00
00
00
00
00
00
00
00
00
00
00
00
00
00
00
00
00
00
00
00
00
00
00
00
00
00
00
00
00
00
00
00
00
00
00
00
00
00
00
00
00
00
00
00
00
00
00
00
00
00
00
00
00
00
00
00
00
00
00
00
00
00
00
00
00
00
00
00
00
00
00
00
00
00
00
00
00
00
00
00
00
00
00
00
00
00
00
00
00
00
00
00
00
00
00
00
00
00
00
00
00
00
00
00
00
00
00
00
00
00
00
00
00
00
00
00
00
00
00
00
00
00
00
00
00
00
00
00
00
00
00
00
00
00
00
00
00
00
00
00
00
00
00
00
00
00
00
00
00
00
00
00
00
00
00
00
00
00
00
00
00
00
00
00
00
00
00
00
00
00
00
00
00
00
00
00
00
00
00
00
00
00
00
00
00
00
f4
04
fe
f3
ff
ff
02
f6
fb
04
02
fb
09
f7
f2
04
06
03
fd
07
fb
f9
f2
03
05
02
07
f4
fa
0a
04
f3
0c
fc
0c
09
04
0e
f5
06
fb
f8
04
08
f2
0a
01
f9
06
fd
f9
fb
f8
05
0f
15
12
08
0d
14
0f
0f
f5
f6
09
00
ee
ed
ff
08
08
f9
04
05
08
0f
12
0f
1b
12
14
04
0d
f6
f3
f5
f7
dc
df
df
d3
d6
ee
ed
04
fb
f8
f7
06
10
0f
1a
0f
f1
e7
cf
ca
bb
c3
db
c6
be
c4
d4
d9
cf
d9
f4
01
fc
f4
09
f7
0c
19
08
fa
f4
d5
c6
b6
cf
e4
f2
ec
da
f4
f4
01
f1
db
ef
f4
04
fa
06
03
0e
13
03
01
d4
d3
be
af
f7
49
5b
51
2e
23
34
25
0c
f6
f1
ff
05
06
04
04
fa
07
f1
ed
e9
e7
e7
f5
26
76
7f
52
29
43
56
54
2d
f8
f0
fd
fa
01
09
f3
03
f4
f8
dd
fb
f5
07
17
2e
39
53
33
09
1e
47
31
0a
e8
04
04
02
f7
fe
03
fe
ff
f1
ee
e8
eb
fe
0d
2d
3c
38
36
49
40
2a
0d
f5
e6
f4
fa
08
f6
08
06
f9
f2
00
05
1a
09
11
32
46
3f
35
34
1f
19
f4
f9
e9
fe
f5
f6
fd
00
f5
ff
0d
03
fd
1d
34
2d
47
5c
68
42
28
17
05
f5
f7
f1
ef
07
fe
f5
06
04
02
03
0b
fb
f9
fc
11
2b
32
40
3b
22
18
0f
0f
08
04
fa
f5
fa
06
f8
08
f7
f5
fa
07
02
e9
e7
de
f1
d9
cd
da
f7
ec
fa
10
04
fb
ef
f0
05
f5
f7
f1
00
f6
03
0d
07
fa
ee
df
d2
c1
c0
ba
d6
d3
db
e8
eb
ef
f3
ec
04
09
f9
08
02
f7
0a
fa
fd
09
05
00
f4
dc
e5
df
e4
f5
ec
f6
f7
f2
01
f8
fa
09
06
00
04
f8
00
f8
f4
fd
0a
fe
fd
fc
0a
f3
fa
02
ee
fc
f4
f1
02
f2
f6
01
03
f2
07
02
f1
f2
fc
ff
f9
ff
05
06
f4
fb
01
f5
00
f2
05
04
f6
00
f8
f9
0a
05
fd
05
f3
05
03
fa
f8
fc
fe
f3
00
fc
06
04
05
f7
06
06
f4
fe
04
00
04
f3
fc
fa
fd
f2
ff
07
04
f9
02
fe
10
0c
0f
0a
fd
ff
01
fc
03
06
06
f6
fc
f3
04
fa
05
f3
04
fd
fe
ff
12
18
1a
1e
24
26
1b
06
05
01
fb
f2
02
00
f7
ff
f5
02
f7
f4
05
0b
f9
0d
ff
01
09
1d
19
1d
17
17
04
f6
fa
e8
ee
eb
fa
05
04
02
f4
fc
01
ff
fb
00
f7
00
f9
e7
db
ee
f6
f5
06
fc
f4
eb
e7
ec
f7
06
f6
03
06
01
13
0a
04
00
0f
13
19
2c
2e
15
ed
fa
f3
f0
fa
fb
f4
ec
f2
fb
01
09
0a
0b
06
07
1d
01
04
02
1c
5d
7f
29
10
fe
fc
fb
0c
08
07
09
07
fa
04
03
fa
02
08
ef
f1
d4
d2
d2
03
68
5b
07
de
0b
16
08
1a
18
16
11
08
f5
f4
00
04
ff
ec
e0
d1
c9
bf
b4
e3
29
2d
e6
df
f8
f8
f5
02
18
20
03
f9
05
f6
f8
00
f9
db
c9
c5
b7
c7
b1
c1
08
18
03
dd
e5
f8
fe
0e
06
0f
07
f9
fe
f5
02
02
fd
f8
ea
d0
c4
cd
d4
cf
f5
14
d1
b6
c7
f4
03
12
09
15
1b
0a
f9
05
02
f8
fd
11
f9
07
08
05
10
f6
ef
f5
cf
ce
f1
ff
18
18
29
11
15
f9
f7
fe
f4
fe
12
1a
12
2d
48
47
47
45
38
13
fc
fe
02
0c
09
15
1f
15
0f
09
f3
04
f3
fe
12
1e
22
32
45
3f
45
4a
2b
29
02
fb
f8
01
fd
fe
fb
03
fa
f3
fe
05
03
09
ff
14
22
24
1e
18
16
19
23
0f
03
ef
e1
e7
eb
ed
fe
f3
f7
00
01
02
07
f4
fe
fa
0b
ff
0f
fe
f1
fe
0b
0e
07
f5
ef
f2
f5
eb
00
f0
fd
f6
f3
f9
f4
fd
f6
fa
05
01
fa
f7
05
09
05
10
10
12
0e
f3
f2
f7
04
fd
01
fe
ff
03
04
00
f1
fe
fd
f5
06
ff
fb
f9
06
fe
f9
03
08
01
03
fc
f6
f6
f3
03
fd
f9
03
f7
f6
00
f7
03
03
08
04
fb
ff
02
fa
04
01
02
01
fc
00
01
f8
03
08
f6
f8
06
07
fb
09
f8
f8
f6
05
f9
fa
f7
f2
01
ff
ff
01
fb
fb
fc
fb
06
f6
06
ff
f8
fb
fc
f8
06
03
fe
f1
ec
e3
f0
e3
e3
f3
f5
fc
ff
01
00
fb
fe
05
f9
06
07
01
f8
f9
01
f9
f0
04
fc
0c
f4
ee
00
03
ee
f8
ff
fc
03
0a
f7
02
03
f9
04
fe
f1
fd
fd
fc
f0
f4
ec
e4
ef
f4
e5
e1
ea
ef
ee
01
10
06
00
05
01
01
03
f7
f6
f2
f5
ec
e5
da
e2
fb
fc
ea
d2
db
d8
f3
f9
0d
1c
1c
fe
08
fc
fd
fe
03
10
08
13
0b
09
25
4c
7c
4f
e9
cb
e3
fa
0a
03
16
19
05
f9
fd
07
ff
f6
02
24
34
3d
46
5b
61
73
7f
40
e6
e4
ff
03
02
0f
0f
0e
0b
fa
fe
fd
00
04
0f
28
3e
55
51
41
2f
21
15
fe
ec
fb
00
18
18
07
14
06
fe
f6
f8
09
01
fa
fe
22
2e
18
0f
f6
e8
e3
e0
d5
e7
f8
05
07
fe
05
09
03
fc
05
ff
07
04
fe
f3
f9
fa
e9
f4
e0
e9
e8
d9
e1
00
13
fb
f3
02
02
0b
fc
f5
f8
03
07
fa
03
f2
e7
f2
f5
f7
f7
03
ef
da
02
16
0e
fd
04
06
07
fa
f7
ef
04
05
ff
fb
fb
eb
ee
f9
fe
f9
06
fc
f4
f3
13
14
fc
f9
f6
04
f9
f7
f7
f0
f8
02
fa
fa
fe
e3
e5
ee
f8
f3
f8
fc
05
0b
02
05
05
02
fe
f8
ff
f2
ef
fc
06
05
fe
f6
fa
f9
eb
e2
ed
0b
00
09
1a
0d
04
ff
08
fa
fe
06
fd
fb
f8
04
ff
09
fa
fc
fa
f3
e8
e2
f2
01
ff
ff
01
f5
09
01
11
0b
11
10
10
0b
fb
f5
04
f6
00
04
01
f8
f6
fa
01
fa
ef
ee
e3
e3
fb
ff
fc
02
10
08
01
02
09
fc
fa
ff
f6
fe
ff
02
f8
f9
05
08
f5
01
fd
f8
f5
01
fc
fc
00
fb
ff
02
fa
04
fb
06
00
04
07
ff
fd
06
01
fc
ff
fb
00
09
fe
fb
ff
fd
07
09
0c
ff
f8
05
03
08
00
fd
0a
0a
fc
0c
0b
03
03
f7
f1
f3
f6
06
ff
04
f7
fd
fc
0a
01
08
0a
fb
fa
00
fb
fb
ff
ff
07
03
02
05
f9
04
06
07
03
05
f9
11
05
09
00
0c
f9
ff
fa
0a
fc
fe
11
10
16
13
17
03
05
00
e0
e1
d5
e1
e9
fd
08
fc
ff
09
fe
00
fb
f9
03
10
10
1c
14
1f
30
28
24
24
07
07
08
00
0f
18
0f
ff
01
02
fb
02
04
05
0b
09
21
31
28
29
20
14
1e
0c
0e
0b
f4
ff
12
0d
0c
02
fd
06
08
fc
04
f9
0b
0e
20
23
26
19
0e
0a
0a
1c
3a
3a
08
fc
f5
f5
0b
01
09
07
02
fa
fe
0d
06
1b
10
05
03
f5
fa
0b
0b
33
7f
6d
38
28
03
fc
e8
ef
f5
01
0b
0c
08
fa
08
08
fa
e3
dc
d7
e2
c7
d1
0c
57
3b
25
06
f1
f2
dc
d3
d9
fd
10
fc
0b
09
0b
f8
ee
c9
a9
be
ac
9a
a1
01
22
10
f7
f2
f0
00
e6
d5
cd
fe
08
09
0d
fb
09
f3
de
ba
b0
b2
af
ac
ca
ff
04
e4
d4
cc
e7
f9
e4
dd
e9
ff
00
0b
09
08
fd
0b
e1
c5
bc
c0
bb
c3
e4
06
0b
f3
cb
df
e1
e1
db
eb
fc
f9
0c
07
f7
fd
0d
09
00
e3
da
ec
e1
ee
fa
16
0f
fd
f9
fb
f7
f2
f2
f9
0a
0a
0e
07
04
0b
0c
fa
f6
fe
fb
01
00
f7
e0
fa
02
00
0c
05
fa
00
f3
ff
06
fb
f9
0d
08
0b
07
0a
12
11
04
02
eb
e5
db
dd
f3
f3
06
0d
07
09
fc
fd
0f
03
0b
0b
03
fd
06
0b
08
1e
11
11
18
10
09
0a
0d
1c
26
12
08
08
06
f8
0b
f8
07
07
fa
09
fc
06
02
08
0d
23
2d
24
2e
24
26
2d
28
21
1c
10
07
f8
05
fe
05
fc
02
0c
fc
fc
fe
00
fb
12
00
04
fe
06
11
0a
09
03
0f
fd
0c
fa
01
08
06
fc
00
00
00
00
00
00
00
00
00
00
00
00
00
00
00
00
00
00
00
00
00
00
00
00
00
00
00
00
00
00
00
00
00
00
00
00
00
00
00
00
00
00
00
00
00
00
00
00
00
00
00
00
00
00
00
00
00
00
00
00
00
00
00
00
00
00
00
00
00
00
00
00
00
00
00
00
00
00
00
00
00
00
00
00
00
00
00
00
00
00
00
00
00
00
00
00
00
00
00
00
00
00
00
00
00
00
00
00
00
00
00
00
00
00
00
00
00
00
00
00
00
00
00
00
00
00
00
00
00
00
00
00
00
00
00
00
00
00
00
00
00
00
00
00
00
00
00
00
00
00
00
00
00
00
00
00
00
00
00
00
00
00
00
00
00
00
00
00
00
00
00
00
00
00
00
00
00
00
00
00
00
00
00
00
00
00
00
00
00
00
00
00
00
00
00
00
00
00
00
00
00
00
00
00
00
00
00
00
00
00
00
00
00
00
00
00
00
00
00
00
00
00
00
00
00
00
00
00
00
00
00
00
00
00
00
00
00
00
00
00
00
00
00
00
00
00
00
00
00
00
00
00
00
00
00
00
00
00
00
00
00
00
00
00
00
00
00
00
00
00
00
00
00
00
00
00
00
00
00
00
00
00
00
00
00
00
00
00
00
00
00
00
00
00
00
00
00
00
00
00
00
00
00
00
00
00
00
00
00
00
00
00
00
00
00
00
00
00
00
00
00
00
00
00
00
00
00
00
00
00
00
00
00
00
00
00
00
00
00
00
00
00
00
00
00
00
00
00
00
00
00
00
00
00
00
00
00
00
00
00
00
00
00
00
00
00
00
00
00
00
00
00
00
00
00
00
00
00
00
00
00
00
00
00
00
00
00
00
00
00
00
00
00
00
00
00
00
00
00
00
00
00
00
00
00
00
00
00
00
00
00
00
00
00
00
00
00
00
00
00
00
00
00
00
00
00
00
00
00
00
00
00
e8
ed
ea
f6
f4
ec
ef
f8
f9
fc
f5
e6
ea
e8
f5
ef
eb
e7
f6
ef
f6
f1
ec
e7
eb
f7
eb
f6
f3
f7
ef
ee
eb
ea
ef
fc
f5
fc
f8
f3
fa
f3
f6
fb
fa
f4
f2
e8
fd
e8
fd
f8
e7
f0
f6
03
0f
05
0f
0d
03
01
f8
f3
f4
e7
f2
e8
ef
f6
f3
f4
f8
f6
f2
ec
ff
02
16
1e
36
33
38
2a
19
14
2f
1d
11
0f
ea
d9
e1
fe
ea
f7
ea
f6
f0
f2
f9
1b
22
3a
34
16
0b
02
f0
f2
fb
0c
0e
05
fe
e8
06
f5
ee
e7
fd
fc
fa
01
11
24
26
37
2a
1a
06
f2
e2
f3
02
00
06
0b
14
10
1c
0c
fa
f9
fe
e6
f9
f6
fe
22
2f
25
23
1b
07
e8
c8
d7
13
2c
28
2c
18
2b
2d
1b
00
ed
ed
eb
ee
f9
05
17
0f
00
f2
ec
e1
cc
a7
a9
08
16
0b
0c
0f
11
0c
fd
f9
fa
ee
ef
f4
f5
ec
fd
f3
f4
d4
e6
e0
cf
81
a6
e5
f7
01
fd
0c
13
16
fc
fe
f3
ea
ed
f1
ea
f8
0d
0a
01
f4
ed
ee
ca
a7
a6
df
00
0d
19
06
08
0e
fe
f4
f0
f7
ee
ec
fc
0c
2c
2f
18
03
f0
01
e9
b0
cb
08
34
2b
2e
19
1e
0a
0b
05
f2
ea
e9
ed
fa
14
51
58
45
2b
1b
06
d0
bb
0f
53
4d
4a
39
2d
37
21
16
04
f9
f5
fd
fc
fb
2a
41
63
5c
35
16
fd
d8
f3
2c
48
41
45
36
2e
26
16
04
f8
ec
f3
e9
f5
0a
16
1c
3d
23
1d
02
f6
f8
fd
15
27
20
23
3d
24
25
11
ee
e8
fd
ee
f3
eb
f8
f0
03
f1
f2
07
18
30
2d
22
22
0b
0d
1a
1f
15
16
f1
fc
f7
fd
eb
f8
f9
f2
f0
ed
e3
f8
02
12
1d
30
1b
1e
07
f8
f3
01
f1
f9
f0
fc
fd
ed
f7
ed
ea
f5
e3
e2
f5
e3
f4
f8
fc
00
00
f5
00
f5
f4
f7
e8
fd
f7
f9
e8
f7
ed
eb
fa
f1
f1
ec
eb
e7
ea
ef
f9
f1
e6
f1
f2
f1
e5
f0
e7
e6
f3
e9
e7
eb
