4e
ca
39
80
b7
00
bb
f3
e3
d5
c1
0e
bc
3c
46
d6
f3
4b
bc
2a
30
00
4d
88
1c
25
d9
0f
80
b0
a8
27
fe
24
12
98
4e
00
1c
bd
14
54
1d
80
26
29
23
a6
be
11
56
e9
ce
00
ff
b8
81
56
5a
04
dd
34
1d
2e
db
d2
80
28
2c
00
c6
26
be
85
dc
fc
4a
c4
1a
33
04
80
f6
46
e0
00
b6
be
15
d8
53
46
e1
20
fc
ef
dc
f9
d2
33
4d
00
07
12
0a
98
80
a4
d4
11
41
a0
45
4b
94
80
0d
00
50
20
e0
18
fa
41
28
9c
a7
c8
b2
f9
79
f9
f2
00
af
36
41
eb
20
80
23
c3
dd
14
03
da
be
09
87
00
23
34
80
d8
06
bf
29
01
fe
61
