// Row 0 (weights pointing to neuron 0)
7D 03 76 76 72 07 7C 74 77 00 70 70 78 7A 78 74 7B 79 77 02 04 77 00 7B 76 76 04 7D 7D 7C 03 00 75 70 70 71 03 77 77 07 7C 73 71 75 00 70 05 74 78 73 7C 05 01 04 7B 01 7A 00 00 74 01 14 11 18 0B 0D 0A 07 70 70 7A 75 05 7E 03 7B 7A 7C 65 68 64 02 05 10 2E 2D 40 2C 33 1D 16 0F 78 7D 02 74 00 7C 76 6D 75 6A 68 67 79 79 09 0A 1B 2D 1B 33 23 28 10 0F 12 12 0D 73 03 7A 7C 65 63 6A 7D 07 71 61 6D 76 00 2E 3B 29 0F 1B 0E 25 2F 2B 02 09 79 04 6B 6F 73 70 72 73 61 50 66 74 0D 16 0F 76 6F 12 1F 2F 44 33 0D 02 78 7A 74 6C 7A 09 7D 6F 72 61 04 4D 4F 0F 53 44 60 6E 0B 0D 1C 15 0E 7D 73 7D 79 68 7E 0C 7B 02 05 70 22 63 3B 53 31 42 55 57 5C 73 7C 7B 08 73 79 02 03 70 7C 0A 07 7C 0C 13 47 53 12 38 1D 32 44 4D 5A 5F 79 6E 71 76 7A 02 7B 7C 06 6C 5F 7C 1E 30 51 28 44 0F 00 35 49 50 57 6A 78 75 75 71 06 76 7C 7E 09 7A 79 0C 36 2D 18 58 17 2A 3D 5D 75 79 73 72 6F 65 7D 03 05 78 7E 0D 0F 28 30 48 52 2C 09 60 39 46 73 11 12 14 1A 11 01 7D 70 78 71 79 03 0D 13 39 33 3A 37 29 17 00 63 02 10 2B 33 27 1C 10 08 6D 7B 7C 74 76 04 10 12 16 07 10 0E 17 20 29 30 26 3C 31 30 16 18 16 7D 75 78 06 7E 79 74 7B 0B 7C 70 01 11 13 19 26 2E 28 2F 17 18 18 00 06 78 7A 71 7B 06 05 06 75 6E 69 74 72 73 7A 6F 03 74 03 03 0F 09 03 07 0C 78 71 7D 71 74 6F 73 02 6F 03 70 76 6D 79 71 6C 77 71 6F 01 01 76 7C 72 01 7A 79 07
// Row 1 (weights pointing to neuron 1)
00 00 00 00 00 00 00 00 00 00 00 00 00 00 00 00 00 00 00 00 00 00 00 00 00 00 00 00 00 00 00 00 00 00 00 00 00 00 00 00 00 00 00 00 00 00 00 00 00 00 00 00 00 00 00 00 00 00 00 00 00 00 00 00 00 00 00 00 00 00 00 00 00 00 00 00 00 00 00 00 00 00 00 00 00 00 00 00 00 00 00 00 00 00 00 00 00 00 00 00 00 00 00 00 00 00 00 00 00 00 00 00 00 00 00 00 00 00 00 00 00 00 00 00 00 00 00 00 00 00 00 00 00 00 00 00 00 00 00 00 00 00 00 00 00 00 00 00 00 00 00 00 00 00 00 00 00 00 00 00 00 00 00 00 00 00 00 00 00 00 00 00 00 00 00 00 00 00 00 00 00 00 00 00 00 00 00 00 00 00 00 00 00 00 00 00 00 00 00 00 00 00 00 00 00 00 00 00 00 00 00 00 00 00 00 00 00 00 00 00 00 00 00 00 00 00 00 7E 7E 00 00 00 00 00 00 00 00 00 00 00 00 00 00 00 00 00 00 00 00 00 00 7E 00 00 00 00 00 00 00 00 00 00 00 00 00 00 00 00 00 00 00 00 00 00 00 00 00 00 00 00 00 00 00 00 00 00 00 00 00 00 00 00 00 00 00 00 00 00 00 00 00 00 00 00 00 00 00 00 00 00 00 00 00 00 00 00 00 00 00 00 00 00 00 00 00 00 00 00 00 00 00 00 00 00 00 00 00 00 00 00 00 00 00 00 00 00 00 00 00 00 00 00 00 00 00 00 00 00 00 00 00 00 00 00 00 00 00 00 00 00 00 00 00 00 00 00 00 00 00 00 00 00 00 00 00 00 00 00 00 00 00 00 00 00 00 00 00 00 00 00 00 00 00 00 00 00 00 00 00 00 00 00 00 00 00 00 00 00 00 00 00 00 00 00 00 00 00 00 00 00 00 00
// Row 2 (weights pointing to neuron 2)
32 32 32 32 32 32 32 32 32 32 32 32 32 32 32 32 32 32 32 32 32 32 32 32 32 32 32 32 32 32 32 33 33 34 34 32 31 33 35 35 33 34 33 32 32 32 32 32 32 32 32 32 32 33 34 3A 43 46 40 3B 3B 3D 46 47 3C 3A 35 31 32 32 32 32 32 32 32 33 33 32 31 37 41 4E 53 44 3E 3C 3C 47 50 51 46 38 2E 2F 33 33 32 32 32 33 32 2D 2E 3F 4B 4E 50 3D 3B 5F 72 71 6E 62 52 37 2D 32 34 33 32 32 31 30 2D 2C 35 4A 56 58 64 62 6A 70 01 78 6E 67 5D 42 3C 3A 34 33 32 32 31 30 30 3C 41 4F 61 0D 1C 11 6F 39 35 52 57 52 4F 53 4A 3B 33 32 32 32 32 34 3D 43 31 22 54 19 1D 77 4A 21 41 5D 4E 37 39 4C 46 39 32 32 32 32 32 38 38 2A -1 01 46 69 61 4C 45 42 58 55 40 3A 3E 48 3F 3A 38 33 32 32 32 33 32 2A 1D 45 78 79 67 57 53 56 74 65 45 46 4C 50 42 38 39 34 32 32 33 33 36 39 62 16 23 15 79 5B 5C 62 6D 64 59 54 48 44 36 2E 33 34 32 32 39 41 46 4A 5B 71 79 7C 7C 6C 58 52 57 52 59 4D 3F 38 34 34 36 34 32 32 35 3A 41 4C 58 69 79 7E 78 62 3F 36 41 50 69 52 32 2F 2E 31 32 32 32 32 33 31 23 29 4D 6B 00 05 01 6A 47 57 5B 54 5E 3E 2A 2E 31 33 33 32 32 32 33 33 27 27 44 5E 5F 64 63 61 69 68 48 33 36 30 30 32 32 31 32 32 32 32 33 36 35 37 41 47 45 43 42 40 49 42 39 2D 2D 34 38 37 34 32 32 32 32 32 33 33 33 34 37 39 3A 42 46 39 36 3E 3E 38 36 36 35 35 34 32 32 32 32 32 32 32 32 33 33 34 33 33 34 31 31 32 33 32 33 33 33 32 32 32 32 32
// Row 3 (weights pointing to neuron 3)
7B 02 09 02 79 08 0A 0A 7B 06 77 7A 0B 7E 78 7A 73 03 75 03 7E 75 7D 05 79 74 01 03 06 0C 76 7D 0C 03 0D 7D 09 11 05 03 05 0D 09 04 0B 78 77 7B 75 06 02 00 7C 06 0C 0A 0D 7A 0B 13 08 13 16 0B 17 0B 09 7B 7C 08 74 0C 7C 75 03 07 02 12 07 0C 0A 05 7E 7B 17 21 2A 28 1E 22 21 1C 16 06 7B 03 74 08 7D 75 0E 13 16 06 7B 5C 49 1E 04 01 1A 37 5D 78 1F 2A 1F 20 10 7D 02 02 04 01 7D 06 0A 71 57 49 38 2B -1 08 2B 51 6C 0A 04 28 1C 25 03 7D 04 06 78 7A 03 77 7B 6B 58 5F 69 6A 63 74 70 69 70 61 66 6D 11 12 13 05 09 07 7D 76 6C 60 5B 6D 73 72 1C 2B 38 2B 7A 40 3F 43 49 52 7C 02 7D 0C 7D 0B 05 7A 6B 5C 57 00 08 2D 5D 54 26 0C 59 4C 56 5D 57 54 75 0A 03 06 01 73 78 72 74 62 74 09 06 11 28 29 2F 0D 60 74 78 6D 73 03 05 0C 77 7E 00 7C 00 06 04 0C 79 75 61 52 79 4A 73 39 04 78 0B 04 0C 0B 16 01 7D 04 77 05 78 03 11 14 11 70 5C 56 71 3A 48 23 0D 76 05 08 13 20 1F 12 78 79 03 79 7D 0B 18 27 26 0F 15 7D 22 1E 27 25 13 0B 79 7E 1E 20 0B 0C 08 78 74 0A 77 0E 0B 15 36 27 2B 1D 26 1D 20 14 19 21 1C 21 1F 18 13 05 7D 7B 7E 7D 7C 0D 01 07 07 10 04 12 01 11 06 1F 25 29 39 1B 14 00 04 77 09 07 7D 7B 7C 08 73 75 72 6E 6A 02 07 0A 2B 1F 0E 00 7E 74 00 7D 7E 05 7D 07 03 0C 08 01 01 74 66 59 60 54 5D 64 5A 6B 5B 56 6B 6E 76 7A 7C 7B 78 02 7B 01 03 05 77 7E 6F 76 7B 79 73 68 63 70 77 72 75 71 77 01 7C 05 08 0B
// Row 4 (weights pointing to neuron 4)
7C 77 07 00 06 7D 7A 08 7E 08 03 08 08 03 07 79 00 0A 03 01 7E 78 7D 01 06 03 04 7B 7E 7B 09 01 77 03 00 05 7A 0B 09 05 01 09 7A 07 03 0A 7C 7D 01 08 05 79 77 7E 7B 6D 6E 5A 58 5D 5F 6A 71 00 07 12 0C 01 7E 0A 03 7D 7C 7D 7B 73 79 67 73 63 67 5B 5A 74 75 02 73 7A 06 07 05 0D 7B 7C 7C 07 78 7A 79 72 6E 6E 75 00 77 79 79 66 65 76 6D 6B 77 73 7A 7D 05 01 77 7C 05 79 7B 73 71 73 0D 08 11 01 75 5E 57 59 75 08 08 7C 7C 08 09 7A 02 77 01 7C 7B 7B 04 04 13 1D 1E 1B 24 13 7A 7E 12 0F 14 0A 12 10 0E 7E 09 08 00 00 00 09 0E 23 2E 23 17 0D 78 60 66 00 0C 72 01 0F 2B 14 08 7C 0A 7A 01 79 7D 01 0E 1B 17 0C 70 70 67 5C 62 0D 7D 71 07 1A 2C 1B 18 07 09 79 00 00 7A 03 0B 17 1C 12 73 73 76 60 6E 04 79 7B 7E 7D 01 07 0E 03 08 7C 02 07 02 7B 09 26 38 51 45 2D 10 06 21 0F 05 04 6F 5D 66 67 7E 09 02 77 08 08 78 73 69 13 38 64 7F 7C 7C 56 2B 7C 72 76 60 65 4D 5F 79 03 00 7A 7C 7E 7C 62 5C 6B 05 11 25 2F 42 27 79 68 64 69 63 57 5D 67 05 07 06 7D 09 7E 73 6D 68 5F 67 63 6A 71 6A 68 67 6D 78 72 6B 70 7D 7C 0F 05 78 7D 04 04 02 72 73 6E 74 73 73 66 77 79 0D 0E 06 00 08 7D 0F 06 7A 09 01 02 02 79 7B 70 68 68 59 68 6A 66 74 74 00 10 05 13 10 0E 04 08 05 06 07 05 06 05 79 79 73 7E 78 64 63 60 69 5E 72 7A 75 79 77 7C 7D 09 00 78 01 09 06 01 7A 07 09 7D 7C 05 03 01 04 03 04 05 76 07 79 06 77 09 7B 07 06 09
// Row 5 (weights pointing to neuron 5)
00 00 00 00 00 00 00 00 00 00 00 00 00 00 00 00 00 00 00 00 00 00 00 00 00 00 00 00 00 00 00 00 00 00 00 00 00 00 00 00 00 00 00 00 00 00 00 00 00 00 00 00 00 00 00 00 00 00 00 00 00 00 00 00 00 00 00 00 00 00 00 00 00 00 00 00 00 00 00 00 00 00 01 00 00 00 00 00 00 00 00 00 00 00 00 00 00 00 00 00 00 00 00 00 00 00 00 00 00 00 00 00 00 00 00 00 00 00 00 00 00 00 00 00 00 00 00 00 00 00 00 00 00 00 00 00 00 00 00 00 00 00 00 00 00 00 00 00 00 00 00 00 00 00 00 00 00 00 00 00 00 00 00 00 00 00 00 00 00 00 00 00 00 00 00 00 00 00 00 00 00 00 00 00 00 00 00 00 00 00 00 00 00 00 00 00 00 00 00 00 00 00 00 00 00 00 00 00 00 00 00 00 00 00 00 00 00 00 00 00 00 00 00 00 00 00 00 00 00 00 00 00 00 00 00 00 00 00 00 00 00 00 00 00 00 00 00 00 00 00 00 00 00 00 00 00 00 00 00 00 00 00 00 00 00 00 00 00 00 00 00 00 00 00 00 00 00 00 00 00 00 00 00 00 00 00 00 00 00 00 00 00 00 00 00 00 00 00 00 00 00 00 00 00 00 00 00 00 00 00 00 00 00 00 00 00 00 00 00 00 00 00 00 00 00 00 00 00 00 00 00 00 00 00 00 00 00 00 00 00 00 00 00 00 00 00 00 00 00 00 7E 00 00 00 00 00 00 00 00 00 00 00 00 00 00 00 00 00 00 00 00 7C 00 01 00 00 00 00 00 00 00 00 00 00 00 00 00 00 00 00 00 00 00 00 00 00 00 00 00 00 00 00 00 00 00 00 00 00 00 00 00 00 00 00 00 00 00 00 00 00 00 00 00 00 00 00 00 00 00 00 00 00
// Row 6 (weights pointing to neuron 6)
72 0E 01 07 05 71 73 78 0A 72 7E 7C 00 0A 7E 0D 0F 7C 70 02 73 7C 7D 70 09 05 08 0F 75 04 74 0A 0E 13 05 15 1A 0B 02 00 04 14 09 0F 74 08 73 08 75 79 79 02 03 0C 7B 12 1A 25 1F 17 22 18 0A 15 17 0F 0D 16 12 0E 76 7A 0A 0A 7B 0D 10 0A 13 36 27 39 56 49 48 4E 62 4B 4F 34 17 7E 7E 7D 7B 01 70 0F 00 04 04 7E 7E 03 77 05 7B 12 1A 27 16 7A 7B 6A 6B 45 4C 70 66 00 7B 6D 04 7E 78 6D 63 54 55 5F 3A 32 49 43 41 4E 55 37 2E 21 13 3E 60 78 77 72 61 60 64 62 74 71 67 4C 2A -1 0A 27 4D 53 63 30 33 2B 2E 35 5C 05 79 6D 01 61 65 72 71 6C 6E 4A 26 03 32 4D 6B 72 0D 7C 6C 03 68 64 74 79 71 03 67 00 67 76 67 69 00 0A 12 28 0F 31 2C 30 2F 10 18 16 14 78 6F 73 0D 71 7E 0B 08 04 00 08 77 12 28 47 36 1D 1F 11 05 70 00 04 0D 76 71 09 04 7C 7A 0C 03 16 15 11 0A 2E 1A 32 32 7C 73 59 6B 7A 00 01 11 0E 10 77 0B 0F 0D 0E 01 72 0A 24 2A 3E 3A 17 6C 5A 6F 0F 29 18 1B 29 27 1B 0C 73 05 75 0F 03 05 6A 78 16 29 43 2D 6B 66 1D 34 42 2A 34 4A 3E 2B 06 73 74 00 08 72 0C 08 0D 12 18 37 3E 17 01 1F 2A 3F 42 44 51 32 23 19 75 72 7B 02 04 7E 78 0B 02 0E 16 19 2C 27 39 23 2C 3A 3D 4A 4E 27 1A 79 0E 7A 00 79 7D 01 0C 79 6D 6E 74 69 5D 5D 7B 69 7E 0C 08 11 16 1C 0D 0A 06 71 78 7B 09 76 6C 73 6D 62 4B 5C 55 46 39 42 3C 4D 67 77 0E 7E 0B 7E 03 70 0D 06 0F 6F 75 09 0A 75 01 67 66 68 70 78 78 00 7B 73 75 7B 01 70 0C 78 02
// Row 7 (weights pointing to neuron 7)
33 33 33 33 33 33 33 33 33 33 33 33 31 30 32 33 33 33 33 33 33 33 33 33 33 33 33 33 33 33 33 33 32 32 32 31 2D 2B 2D 30 31 32 33 33 34 33 33 33 33 33 33 33 33 33 33 32 2F 2B 27 24 24 21 1C 24 2B 31 35 37 3D 38 33 33 33 33 33 33 32 32 33 2B 1F 16 17 16 0B 00 03 1C 33 38 3C 39 38 35 33 33 33 33 33 33 35 3D 3B 2E 23 23 34 3A 36 2A 24 29 2D 2A 35 34 2E 2E 32 33 33 33 34 36 3B 41 36 36 3B 2F 3B 4F 5E 55 41 37 13 09 27 2F 2F 2F 32 33 33 33 33 34 35 31 2E 39 37 2D 30 4A 5B 55 40 2A 15 16 2D 2E 2F 2F 31 33 33 33 32 31 2F 2E 32 34 3B 3F 3E 47 42 37 2D 1C 1B 29 2D 2D 31 32 32 32 33 33 32 31 30 2B 2E 36 3D 44 45 45 40 39 2D 16 07 20 23 24 2E 32 33 33 33 33 33 32 2E 21 28 34 35 34 38 45 48 39 2F 17 00 15 25 29 31 33 33 33 33 33 33 2F 24 18 1B 1C 1A 1D 2C 35 47 50 3E 1D 04 10 28 3A 39 34 33 33 33 33 33 2F 27 21 1A 11 11 15 1B 27 3F 56 3E 23 16 14 2B 3B 3B 37 33 33 33 33 33 32 2E 26 22 19 19 1E 2C 2E 3B 45 29 1D 17 1B 29 36 3B 39 34 33 33 33 33 31 2D 28 26 27 29 2E 36 2B 19 19 12 19 29 28 2D 32 35 36 34 33 33 33 32 2D 26 21 24 2A 1C 22 26 1B 19 1D 25 2B 2E 2F 2F 30 32 33 33 33 33 33 31 2D 2A 28 2B 37 38 34 3D 3D 3C 3A 3D 39 32 31 33 31 32 33 33 33 33 33 32 32 32 31 33 39 40 42 42 3B 3A 3B 38 34 32 31 32 32 32 33 33 33 33 33 33 33 33 33 33 33 35 36 35 34 35 35 33 33 33 32 32 33 33 33 33 33
// Row 8 (weights pointing to neuron 8)
0B 04 0C 06 0B 06 0B 0B 07 00 05 0C 0B 04 07 00 0A 08 05 0D 0D 0A 01 7E 7D 7C 0A 0B 05 0C 0C 03 7B 02 0A 08 09 7D 06 00 04 00 0C 06 06 7E 07 0B 09 7D 07 05 0C 0B 00 03 00 7B 04 04 7B 0C 01 00 0A 7D 00 7E 07 04 09 03 7D 04 00 02 04 03 06 7C 7D 77 77 73 7E 7C 75 04 77 72 7E 02 7A 79 7B 02 06 09 09 0D 0D 0D 05 06 04 00 6B 66 66 5D 78 05 02 00 79 73 66 75 77 7E 0A 01 07 0F 0E 04 02 71 65 5A 42 3F 60 01 07 00 00 7A 7A 7B 68 65 76 06 7D 03 07 0B 04 75 73 65 54 54 62 09 23 31 2C 19 18 20 1B 0D 00 70 7C 7D 7E 08 09 09 07 76 7A 75 68 01 1C 17 0C 1F 2F 27 1F 18 2D 27 14 01 76 07 01 05 0A 0A 14 17 06 04 13 21 17 69 59 6C 0A 09 03 03 29 36 29 05 7B 0B 00 01 0A 02 1D 20 19 0E 18 1D 6C 38 30 5D 03 08 0E 23 2B 35 26 04 7E 07 0D 04 06 08 1A 13 19 0C 09 79 2E -1 10 59 00 18 23 2A 21 1D 14 01 7A 01 09 0C 79 07 0C 7E 0A 00 00 62 38 27 48 77 16 1F 0A 08 0C 05 72 70 00 05 0D 0A 7A 03 03 75 64 73 7A 05 74 67 71 07 13 03 05 70 69 62 6B 7D 0A 00 09 03 7E 79 03 75 66 67 6C 07 0B 08 15 1A 18 08 73 66 64 5D 72 04 07 00 7D 00 0C 02 04 7C 08 7C 76 7C 0F 0F 1A 14 01 69 57 56 60 76 01 7C 00 00 00 7D 02 07 10 13 17 0D 01 0E 77 7B 00 78 6D 6F 6C 73 71 7B 7B 02 09 00 0B 05 0A 03 07 11 0E 10 08 0B 05 01 7B 7C 02 79 77 75 78 09 07 07 0D 0B 0A 7D 7E 05 04 00 05 0D 02 00 02 0C 0B 0A 08 0F 05 00 7C 06 07 0B 0D 0A
// Row 9 (weights pointing to neuron 9)
7A 0D 06 79 0F 08 10 79 0D 05 00 0D 0F 79 7D 0F 0D 07 7D 0F 04 7B 10 11 08 13 07 0C 0A 05 02 0B 78 0A 75 06 75 05 7D 0F 11 0D 09 0B 0A 7D 04 00 7C 0E 04 10 02 0C 73 6D 5E 4E 4A 53 62 62 01 76 0C 14 1B 15 16 0F 08 7B 01 03 0A 77 76 74 5F 4D 40 44 4A 48 50 4E 46 63 05 05 22 2A 27 0D 0E 0A 07 11 08 73 7B 62 62 54 57 56 4D 2D 2E 39 49 52 64 77 02 0E 30 1F 00 0B 79 10 07 7B 7A 78 7B 7C 77 5A 5F 5C 37 32 3F 4C 54 5E 69 01 2B 15 0D 05 08 04 09 00 7E 12 2C 21 33 42 5A 55 1C 77 4A 57 59 4F 53 60 14 11 0F 04 11 79 0D 02 1C 49 41 4A 51 4F 66 7F 5D 39 23 74 62 51 68 7B 77 7E 09 12 05 08 0C 13 37 4E 3F 24 7A 72 1B 1C 37 4B 2A 0B 08 7C 15 1B 10 0E 7C 06 0B 05 0D 12 20 2C 7A 69 69 73 6B 70 01 07 0C 79 13 1E 22 25 11 7E 72 10 06 79 08 70 6C 6C 03 0E 7C 07 06 0E 12 02 02 05 15 2C 17 19 06 74 7B 79 12 0D 01 66 57 72 00 16 1C 18 12 03 1C 73 64 04 15 16 05 75 67 5E 77 06 10 08 73 66 4C 64 6E 78 6A 67 58 63 74 6A 69 00 00 7D 77 5A 67 73 79 0C 7B 7D 79 59 4F 66 65 7D 6D 71 6C 62 7C 01 0D 7E 6F 6F 5B 68 66 71 0F 03 0C 7B 0B 77 71 61 6F 6D 70 6A 6E 6A 6E 75 77 7E 73 77 7B 6B 77 79 7D 08 10 08 0B 0E 01 76 79 73 78 79 5D 67 62 70 7C 00 01 07 03 77 07 06 0F 12 0E 00 7B 06 0B 0C 03 01 05 66 70 70 64 6B 79 7A 09 04 04 03 05 0E 7E 7E 04 03 7B 0F 7C 7D 01 01 79 02 03 7C 7A 78 0F 0C 0E 0E 07 09 06 10 7B 7A
// Row 10 (weights pointing to neuron 10)
00 00 00 00 00 00 00 00 00 00 00 00 00 00 00 00 00 00 00 00 00 00 00 00 00 00 00 00 00 00 00 00 00 00 00 00 00 00 00 00 00 00 00 00 00 00 00 00 00 00 00 00 00 00 00 00 00 00 00 00 00 00 00 00 00 00 00 00 00 00 00 00 00 00 00 00 00 00 00 00 00 00 00 00 00 00 00 00 00 00 00 00 00 00 00 00 00 00 00 00 00 00 00 00 00 00 00 00 7E 00 00 00 00 00 00 00 00 00 00 00 00 00 00 00 00 00 00 00 00 00 00 00 00 00 00 00 00 00 00 00 00 00 00 00 00 00 00 00 00 00 00 00 00 00 00 00 00 00 00 00 00 00 00 00 00 00 00 00 00 00 00 00 00 00 00 00 00 00 00 00 00 00 00 00 00 00 00 00 00 00 00 00 00 00 00 00 00 00 00 00 00 00 00 00 00 00 00 00 00 00 7C 00 00 00 00 00 00 00 00 00 00 00 00 00 00 00 00 00 00 00 00 00 00 7A 7A 00 00 00 00 00 00 00 00 00 00 00 00 00 00 00 00 00 00 00 00 00 00 78 7C 00 00 00 00 00 00 00 00 00 00 00 7D 7C 00 00 00 00 00 00 00 00 00 7E 7E 00 00 00 00 00 00 00 00 00 00 00 00 7E 00 00 00 00 00 00 00 7D 7E 00 00 00 00 00 00 00 00 00 00 00 00 00 00 00 7E 7E 7E 7E 00 00 7E 00 00 00 00 00 00 00 00 00 00 00 00 00 00 00 00 00 00 00 00 00 00 00 00 00 00 00 00 00 00 00 00 00 00 00 00 00 00 00 00 00 00 00 00 00 00 00 00 00 00 00 00 00 00 00 00 00 00 00 00 00 00 00 00 00 00 00 00 00 00 00 00 00 00 00 00 00 00 00 00 00 00 00 00 00 00 00 00 00 00 00 00 00 00 00 00 00 00 00 00 00 00 00 00 00
// Row 11 (weights pointing to neuron 11)
70 70 04 75 05 70 03 6C 76 70 7D 06 6C 08 01 78 03 00 6C 02 71 03 6D 77 05 76 74 78 73 69 72 7D 6D 6E 65 5D 6A 6B 6C 5E 69 7C 64 75 01 6E 7E 07 08 7D 79 72 7C 01 70 65 52 4C 68 57 72 7C 69 77 64 6F 67 6A 70 71 71 7A 74 76 02 08 02 7E 78 71 70 05 03 7D 73 70 02 7C 0B 1B 11 0A 04 72 08 06 08 03 0A 04 06 0F 22 27 31 2B 2A 14 7D 0D 19 37 53 49 47 33 0C 0D 01 7C 02 78 7A 02 19 29 26 31 2C 19 1D 1D 6E 09 31 58 6D 62 4B 46 25 0A 73 7C 6B 03 08 13 13 14 14 02 02 02 0B 0B 63 1B 58 58 6B 54 35 20 14 03 7D 70 7C 6B 7E 04 05 04 10 16 10 40 47 27 19 4F 4D 45 32 22 13 07 00 7E 0B 73 6B 7C 76 07 1D 11 0C 09 06 2F 2E 7E 60 22 37 17 07 7E 06 6F 6E 70 6F 6D 75 75 03 03 24 11 0F 70 57 6E 70 4C 1C 03 3B 38 27 0B 00 6B 63 61 7A 7C 6E 6B 08 02 1B 0B 20 0A 57 38 6E 4A 42 3B 5A 4C 01 08 02 6B 6D 60 79 6F 05 75 0D 07 0D 12 20 74 6D 4A 6F 07 02 23 1B 01 66 73 0F 7D 56 6D 6A 04 6E 79 77 15 16 2E 0E 02 65 37 25 38 34 38 35 38 60 5A 6E 71 64 71 6C 7B 77 7B 72 0B 07 10 78 7D 65 3E 2A 0E -1 15 37 34 3D 66 6B 63 6C 68 00 79 6C 6B 72 06 75 77 0A 75 6B 04 0A 14 0A 11 0D 71 69 74 75 6F 71 6A 05 00 03 78 06 74 72 0F 0F 28 25 28 39 4E 4B 32 35 2F 19 06 07 08 75 6E 7B 72 77 6A 07 0A 79 05 0A 07 0D 1E 23 2D 22 2D 21 20 16 09 76 03 75 6B 73 01 78 00 6C 79 79 7A 76 00 0B 71 77 00 0C 02 71 7E 7D 74 09 6B 76 04 79 01
// Row 12 (weights pointing to neuron 12)
2F 2F 2F 2F 2F 2F 2F 2F 2F 2F 2F 2F 2F 2F 2F 2F 2F 2F 2F 2F 2F 2F 2F 2F 2F 2F 2F 2F 2F 2F 2F 2F 2F 2F 31 32 31 31 31 32 31 31 32 31 2F 2F 2F 2F 2F 2F 2F 2F 30 30 30 31 2F 30 35 3C 40 39 39 3C 38 36 34 31 2F 2F 2F 2F 2F 2F 2F 30 31 30 33 37 39 3B 46 56 5B 53 4A 4C 54 5B 4E 39 2B 26 27 2C 2F 2F 31 32 32 30 42 4C 55 60 6F 70 70 60 58 4D 59 72 61 40 37 2A 1D 22 2F 2F 32 36 3A 3A 49 45 54 6B 6D 61 4D 44 55 66 5C 54 37 32 37 39 30 2E 2F 30 33 38 3F 3A 36 33 55 71 6F 6D 65 5C 67 79 6F 4F 2F 36 34 36 34 31 2F 30 31 3A 39 3A 4D 55 6C 79 79 72 6D 70 75 76 69 41 31 38 37 37 33 30 2F 2F 30 38 39 3B 5B 5D 54 52 5D 5D 73 78 74 6C 5A 34 23 28 2E 2F 30 2F 2F 2F 2F 37 3A 3F 51 53 2C -1 20 40 5A 6A 6C 6D 56 3D 2A 27 2B 2D 2F 2F 2F 2F 2F 36 3D 48 47 40 1D 17 32 48 4F 53 5C 69 5D 54 44 3B 32 2C 2F 2F 2F 2F 2E 39 41 41 45 47 3B 49 53 48 49 62 5E 60 5C 5A 52 40 32 2D 2F 2F 2F 2F 2E 3C 4A 48 4D 49 49 5A 5A 52 6E 78 6A 57 47 52 4F 3E 30 2E 2F 2F 2F 2F 2E 34 41 4A 57 5D 63 52 43 5D 73 73 6B 5E 44 36 42 3B 31 2E 2E 2F 2F 2F 2F 2F 32 3F 51 58 58 43 40 44 51 4A 58 59 3A 26 36 33 2F 2F 2F 2F 2F 2F 2F 2F 34 42 48 47 3B 40 48 2C 0D 09 28 3F 37 34 35 2F 2F 2F 2F 2F 2F 2F 2F 2F 34 41 40 37 37 41 4F 48 27 16 22 38 3C 38 33 2F 2F 2F 2F 2F 2F 2F 2F 2F 2F 30 30 2F 31 34 34 32 31 33 35 35 32 2F 2F 2F 2F 2F 2F 2F
// Row 13 (weights pointing to neuron 13)
26 26 26 26 26 26 26 26 26 26 26 26 26 26 26 26 26 26 26 26 26 26 26 26 26 26 26 26 26 26 25 24 25 26 26 24 24 24 22 20 21 25 26 26 26 26 26 26 26 26 26 26 26 26 20 1A 20 21 22 20 27 2A 0D -1 0D 23 28 27 27 26 26 26 26 26 26 26 26 29 26 35 52 5D 5C 65 6B 53 4B 47 4C 51 49 3F 31 28 26 26 26 26 26 28 31 3D 43 61 71 78 7B 7D 7C 70 71 77 75 69 5B 50 3D 2B 27 26 26 26 26 2D 3A 4A 58 6A 6E 74 79 77 76 71 6A 6C 69 53 50 52 41 29 27 26 26 26 28 2A 30 42 54 5F 61 72 79 7A 7A 79 73 66 55 48 4A 50 40 2A 27 26 26 26 27 28 30 41 4A 50 5F 71 74 77 79 79 79 78 67 54 4B 49 36 28 27 26 26 26 21 22 35 46 45 46 68 75 73 77 78 76 78 77 6D 54 46 40 2F 25 26 26 26 26 1D 20 3C 3D 23 3B 68 7B 7B 78 73 77 78 72 5E 40 33 38 30 26 26 26 26 26 1D 1D 36 13 1D 45 60 72 7B 7B 7A 7B 7C 74 63 54 46 49 32 26 26 26 26 26 22 26 38 29 2D 38 46 58 6E 7A 7C 7B 7B 72 6A 58 49 47 31 1F 24 26 26 26 26 33 4B 50 3D 3E 4F 64 6A 74 78 74 71 73 76 55 44 3B 22 10 21 26 26 26 26 37 4A 59 5C 58 60 6B 6C 70 71 74 70 70 67 3D 38 3D 2A 21 25 26 26 26 26 2C 38 5B 6D 6D 6B 6D 70 74 77 74 6C 65 4F 38 3F 3A 2A 26 26 26 26 26 26 2A 36 47 58 5C 63 63 55 51 62 67 61 58 41 2E 2F 2A 26 26 26 26 26 26 26 2C 2D 2C 2F 33 34 32 25 21 20 41 3F 35 28 12 20 26 26 26 26 26 26 26 26 26 26 26 26 25 25 26 22 1E 1E 27 26 26 27 16 1C 26 26 26 26 26
// Row 14 (weights pointing to neuron 14)
10 0F 10 10 0E 0F 0E 0E 0E 0F 0F 0F 10 0F 0F 0F 0E 0F 10 0F 0E 0F 0F 0E 10 0E 0F 10 0F 0F 0E 10 10 10 10 12 14 14 10 13 12 14 13 0F 0E 0D 10 0F 10 0F 10 0E 10 10 13 17 18 19 1D 2D 2D 20 16 19 1D 1B 0E -1 05 0D 0E 0E 0E 0E 0E 10 13 18 1F 24 25 23 2C 44 43 32 2F 29 2D 24 13 02 0A 10 11 0F 0F 0F 0E 10 0F 16 1E 2D 3E 44 52 68 6E 57 48 43 50 5A 4D 2E 1B 15 15 0F 0F 10 0F 0F 0E 15 2F 4D 66 6E 7A 7D 7B 77 75 75 75 6A 4E 2E 0D 0F 10 0F 0F 0D 0D 0D 08 15 2D 49 69 71 73 6C 68 60 70 7C 7D 6F 41 0C 0C 0E 0F 0F 0E 0E 0D 0E 08 08 16 40 55 64 51 56 5F 6F 79 7D 79 5D 32 1D 0F 10 0F 0E 0F 0F 0F 0D 0E 19 27 4F 66 65 57 5F 63 76 79 77 70 3F 3D 32 1D 13 0F 0E 10 0E 0F 17 33 2B 2B 53 70 70 6F 76 7D 00 7C 6C 6A 64 43 2D 20 12 0E 0F 0E 10 0D 25 4D 36 34 51 71 75 75 79 7E 7E 78 6A 71 70 46 27 1F 17 10 0F 10 0E 0F 23 4D 5F 66 6A 76 74 6F 71 7B 78 5E 4D 5A 57 46 40 32 19 10 0E 0F 0E 0E 21 3B 47 4C 52 65 62 5D 6E 7A 73 4D 2A 33 25 2E 40 2D 10 0F 10 0E 0F 0F 15 1D 1C 32 4A 5F 6A 60 59 6B 6B 50 2F 19 1B 27 26 17 0F 0F 0E 10 0F 0E 10 0A 06 19 37 56 65 61 63 6A 64 45 1C 15 22 22 21 19 10 0F 0F 0F 0F 0F 10 0F 10 19 38 42 34 27 46 5C 48 1D 0E 0E 16 10 12 12 0F 0E 0F 0F 10 0E 0F 0F 0E 13 21 26 10 09 17 30 27 1F 1B 0B 0D 0D 0E 0E 0E 0F 10 10 0E 0F 0E 0F 0F 0F 0F 10 0F 0E 10 10 16 18 16 0F 11 10 0E 0F 0F 0E 10
// Row 15 (weights pointing to neuron 15)
38 38 39 39 39 38 39 38 38 38 39 37 38 39 38 39 39 39 37 39 38 38 38 39 39 38 39 39 39 39 39 39 39 39 38 39 3B 3F 3F 41 45 41 3B 39 38 39 39 39 39 39 39 39 38 43 47 42 3B 3F 43 52 5E 5E 5B 56 58 54 3E 3B 3B 39 38 39 38 39 38 37 3A 4F 5C 69 73 78 78 7D 7E 00 00 7C 78 68 52 41 3C 38 39 38 39 39 35 32 2F 3B 5F 7D 00 7D 00 02 01 01 01 00 00 77 5C 4D 41 39 39 38 38 37 36 2F 29 4E 70 79 7E 01 01 00 00 7E 00 00 00 7B 6E 56 45 39 3A 39 38 36 35 37 50 63 61 69 6D 7C 7E 7D 7B 7B 00 00 00 7A 64 4F 4A 3D 38 38 37 35 37 38 5B 65 57 63 64 78 7D 79 6C 7A 00 00 03 7B 65 3E 40 40 38 38 38 38 3B 37 4F 75 70 70 7D 00 00 72 7D 00 00 00 00 75 57 2E 36 39 38 37 38 37 3F 46 3A 49 5E 70 79 00 00 7D 00 00 00 7D 79 77 49 2D 3B 3B 38 38 38 38 3E 4F 4E 40 5A 75 77 7D 7E 00 00 00 00 7C 76 73 5C 52 47 38 36 37 38 38 3B 47 5E 69 6E 7C 7D 02 01 7E 7D 7E 7C 7A 73 74 64 5D 5C 42 34 37 39 3B 3D 40 57 6E 74 7B 7D 01 01 7B 00 7D 78 7A 7C 77 67 65 61 48 3A 39 38 39 3D 42 57 72 79 7D 00 03 01 7E 00 7D 7D 7E 7C 7C 74 63 49 3D 39 39 38 38 39 3C 56 6C 78 7E 02 02 01 01 7C 7C 7D 7D 7C 7C 69 4D 38 39 39 39 39 38 39 40 52 62 70 78 00 01 01 79 68 52 69 70 67 58 4F 4A 3A 38 38 38 39 38 39 3A 3F 4B 56 5C 6A 75 67 48 -1 06 52 58 3C 35 3F 3D 38 38 39 39 39 38 39 38 39 39 39 38 39 3F 38 36 28 29 3C 41 39 3B 3C 38 38 39 39 39
// Row 16 (weights pointing to neuron 16)
01 09 05 02 79 09 7D 11 06 07 02 05 7A 0C 79 05 78 11 0C 0B 03 01 0C 0D 7E 03 7E 0E 09 7A 0D 7E 0B 7D 12 0F 0B 0C 0E 0E 0E 7C 13 7D 78 7B 06 0C 09 09 10 06 03 03 7C 7E 01 0B 7B 0A 03 11 0A 08 18 10 02 7E 0B 02 09 11 7B 0C 7E 7E 0D 00 03 13 7D 68 4F 49 5B 72 78 7E 75 76 00 75 78 00 02 00 11 7D 08 0A 02 12 02 01 73 64 49 32 40 2A 30 44 5A 65 75 6B 65 72 05 79 78 0B 09 0A 0C 0C 0A 7D 71 68 6A 60 01 7A 78 68 59 69 68 62 65 60 02 01 10 0D 0E 19 0F 7A 71 63 5E 6D 0A 48 4E 5D 44 25 7C 74 74 65 56 5E 7C 01 78 0C 06 14 0E 6F 65 53 50 62 7E 6C 4B 75 01 02 73 61 50 76 6A 7C 02 10 11 79 0A 05 08 6B 6A 55 51 66 6B 16 -1 18 49 65 57 64 7B 17 0A 79 77 79 0D 7D 0D 06 24 1A 0F 0A 05 6C 48 11 18 42 5C 69 19 36 34 2F 2A 11 0A 11 08 01 76 10 2F 3A 37 18 10 7E 4E 32 51 62 05 3A 5F 4F 30 25 0C 16 0E 03 06 05 04 18 24 35 30 28 2F 33 24 1E 1B 0E 2A 41 43 2A 29 17 0F 13 17 08 10 03 7D 7D 14 77 12 2F 33 5A 65 48 23 17 35 2C 1B 07 0C 0E 0E 0F 0F 09 7D 0B 7A 0B 03 65 58 6E 0B 29 20 1B 0F 10 0E 13 04 0C 08 0C 15 13 08 0F 7D 05 09 7C 00 77 62 61 59 4D 35 24 30 65 6E 7C 7B 14 17 13 10 10 7C 0F 0C 77 7B 79 0D 7B 05 62 50 39 38 32 41 5B 64 67 77 71 04 11 0E 12 10 10 7C 78 08 0A 7B 04 75 76 71 71 5F 78 6B 7E 70 66 6B 04 74 0A 05 0A 01 06 0D 0F 78 7D 0C 06 06 78 04 0D 08 7E 7E 0A 79 03 0A 7E 0F 7A 0B 11 07 09
// Row 17 (weights pointing to neuron 17)
00 00 00 00 00 00 00 00 00 00 00 00 00 00 00 00 00 00 00 00 00 00 00 00 00 00 00 00 00 00 00 00 00 00 00 00 00 00 00 00 00 00 00 00 00 00 00 00 00 00 00 00 00 00 00 00 00 00 00 00 00 00 00 00 00 00 00 00 00 00 00 00 00 00 00 00 00 00 00 00 00 00 00 00 00 00 00 00 00 00 00 00 00 00 00 00 00 00 00 00 00 00 00 00 00 00 00 00 00 00 00 00 00 00 00 00 00 00 00 00 00 00 00 00 00 00 00 00 00 00 00 00 00 00 00 00 00 00 00 00 00 00 00 00 00 00 00 00 00 00 00 00 00 00 00 00 00 00 00 00 00 00 00 00 00 00 00 00 00 00 00 00 00 00 00 00 00 00 00 00 00 00 00 00 00 00 00 00 00 00 00 00 00 00 00 00 00 00 00 00 00 00 00 00 00 00 00 00 00 00 00 00 00 00 00 00 00 00 00 00 00 00 00 00 00 00 00 00 00 00 00 00 00 00 00 00 00 00 00 00 00 00 00 00 00 00 00 00 00 00 00 00 00 00 00 00 00 00 00 00 00 00 00 00 00 00 00 00 00 00 00 00 00 00 00 00 00 00 00 00 00 00 00 00 00 00 00 00 00 00 00 00 00 00 00 00 00 00 00 00 00 00 00 00 00 00 00 00 00 00 00 00 00 00 00 00 00 00 00 00 00 00 00 00 00 00 00 00 00 00 00 00 00 00 00 00 00 00 00 00 00 00 00 00 00 00 00 00 00 00 00 00 00 00 00 00 00 00 00 00 00 00 00 00 00 00 00 00 00 00 00 00 00 00 00 00 00 00 00 00 00 00 00 00 00 00 00 00 00 00 00 00 00 00 00 00 00 00 00 00 00 00 00 00 00 00 00 00 00 00 00 00 00 00 00 00 00 00 00 00 00 00 00 00 00 00 00 00 00 00 00 00
// Row 18 (weights pointing to neuron 18)
20 20 20 20 20 20 20 20 20 20 20 20 20 20 20 20 20 20 20 20 20 20 20 20 20 20 20 20 20 20 20 20 20 20 20 20 1F 21 21 21 21 21 21 20 20 20 20 20 20 20 20 20 20 20 20 20 20 1F 1E 1C 1C 2E 2C 2A 29 2A 25 21 20 20 20 20 20 20 20 20 1F 1F 1F 1E 19 16 12 07 1D 35 33 36 2F 35 2D 23 21 20 20 20 20 20 20 20 20 21 27 25 18 16 0E -1 2C 37 2A 2D 1F 1D 24 1D 22 21 21 20 20 20 20 20 20 28 34 29 22 33 43 51 60 4B 40 4A 35 1D 1D 22 25 23 22 20 20 20 21 21 24 2A 2A 25 1D 35 4A 5A 5E 55 5E 65 47 25 1C 25 25 24 22 20 20 20 20 21 26 28 28 2A 14 20 25 3B 50 5A 55 58 46 2D 1D 21 25 23 21 20 20 20 20 20 22 24 29 36 2B 1C 1B 39 4C 41 28 26 36 3E 2C 1E 22 21 20 20 20 20 20 21 20 20 28 3C 33 1A 23 2F 39 3F 29 1B 20 35 2E 1C 1F 21 20 20 20 20 21 21 23 21 23 2F 27 2E 2E 29 39 3A 1C 0B 11 2B 33 25 20 20 21 20 20 20 21 25 2D 29 20 26 30 32 35 28 3E 32 0D 0B 15 33 35 2F 24 21 21 21 20 20 21 2A 32 31 26 29 2E 34 25 26 4C 37 10 1B 2D 2F 2A 33 28 21 21 21 20 20 20 25 30 32 2D 36 2B 1F 2A 2C 45 1B 0E 25 27 1C 20 30 26 21 21 20 20 20 20 22 28 29 26 35 2F 2F 33 2E 23 08 16 18 10 13 1E 2C 27 20 20 20 20 20 20 22 25 24 22 2D 2F 2D 2C 2C 21 18 1E 1D 1D 20 23 2C 27 21 20 20 20 20 20 21 22 23 29 2E 28 25 29 2C 2A 26 2A 27 24 25 27 28 23 20 20 20 20 20 20 20 20 20 21 23 22 21 21 21 21 22 24 22 21 20 20 20 20 20 20 20
// Row 19 (weights pointing to neuron 19)
70 02 0A 7C 09 72 01 73 75 71 77 71 74 6E 00 7B 02 03 76 06 7A 7D 77 75 7D 7C 06 02 0A 7E 75 7D 08 03 04 76 07 76 75 71 68 7A 69 7C 02 07 7C 76 7D 09 71 74 7E 00 0C 12 0C 18 24 2B 23 12 7C 74 6C 61 70 72 76 7C 70 6E 76 6F 7A 03 03 10 27 14 16 04 1F 1C 26 06 07 6D 73 64 68 4F 4E 73 00 79 6F 75 7B 11 12 23 1C 07 76 04 0B 29 22 27 2D 25 0E 05 69 4D 35 64 72 00 03 08 05 1F 2D 26 1F 05 7A 11 2C 5A 64 53 2F 23 22 1A 03 63 3B 45 78 71 71 70 79 20 27 30 01 01 74 0E 09 1E 6D 58 15 11 09 26 13 74 54 5A 6B 0A 02 7B 00 1D 30 0F 7C 76 76 5B 3C 4A 26 1D 00 09 2B 45 3A 03 7E 04 7B 77 02 07 01 05 15 69 5C 71 71 30 -1 34 10 01 71 7C 0C 2B 0A 72 76 0C 05 01 0A 77 07 7D 06 79 71 6D 59 26 20 73 08 63 71 74 00 75 0A 65 68 7E 09 0C 7D 0B 09 0C 16 78 02 6F 73 5D 02 26 7A 7E 07 04 7E 07 11 0C 19 17 0C 04 09 01 01 10 18 69 6C 70 01 7A 7C 0E 70 78 7C 75 06 10 21 21 23 2A 0D 7B 6D 00 01 20 06 6A 6A 54 5A 31 32 40 45 41 78 6C 7D 14 11 0C 18 0E 75 08 77 08 7B 12 1F 07 7D 76 51 28 01 12 28 3F 7C 04 12 26 0F 0E 11 7E 03 73 74 74 7E 0C 20 13 13 0A 0D 68 64 50 68 75 08 09 0E 18 05 03 7C 7A 09 71 70 08 06 7A 09 09 1C 01 05 79 76 70 7E 79 04 0B 00 79 08 03 7A 0A 70 09 7D 79 07 79 74 17 09 18 19 24 28 21 2F 12 1B 0D 03 79 0D 05 09 7D 75 0A 08 74 02 01 09 07 78 0B 7A 7B 7E 0F 02 16 7E 04 7C 09 7B 6D 0A 73 7D 79
// Row 20 (weights pointing to neuron 20)
00 00 00 00 00 00 00 00 00 00 00 00 00 00 00 00 00 00 00 00 00 00 00 00 00 00 00 00 00 00 00 00 00 00 00 00 00 00 00 00 00 00 00 00 00 00 00 00 00 00 00 00 00 00 00 00 00 00 00 00 00 00 00 00 00 00 00 00 00 00 00 00 00 00 00 00 00 00 00 00 00 00 00 00 00 00 00 00 00 00 00 00 00 00 00 00 00 00 00 00 00 00 00 00 00 00 00 00 00 00 00 00 00 00 00 00 00 00 00 00 00 00 00 00 00 00 00 00 00 00 00 00 00 00 00 00 00 00 00 00 00 00 00 00 00 00 00 00 00 00 00 00 00 00 00 00 00 00 00 00 00 00 00 00 00 00 00 00 00 00 00 00 00 00 00 00 00 00 00 00 00 00 00 00 00 00 00 00 00 00 00 00 00 00 00 00 00 00 00 00 00 00 00 00 00 00 00 00 00 00 00 00 00 00 00 00 00 00 00 00 00 00 00 00 00 00 00 00 00 00 00 00 00 00 00 00 00 00 00 00 00 00 00 00 00 00 00 00 00 00 00 00 00 00 00 00 00 00 00 00 00 00 00 00 00 00 00 00 00 00 00 00 00 00 00 00 00 00 00 00 00 00 00 00 00 00 00 00 00 00 00 00 00 00 00 00 00 00 00 00 00 00 00 00 00 00 00 00 00 00 00 00 00 00 00 00 00 00 00 00 00 00 00 00 00 00 00 00 00 00 00 00 00 00 00 00 00 00 00 00 00 00 00 00 00 00 00 00 00 00 00 00 00 00 00 00 00 00 00 00 00 00 00 00 00 00 00 00 00 00 00 00 00 00 00 00 00 00 00 00 00 00 00 00 00 00 00 00 00 00 00 00 00 00 00 00 00 00 00 00 00 00 00 00 00 00 00 00 00 00 00 00 00 00 00 00 00 00 00 00 00 00 00 00 00 00 00 00 00 00 00 00
// Row 21 (weights pointing to neuron 21)
30 30 30 30 30 30 30 30 30 30 30 30 30 30 30 30 30 31 36 32 30 30 30 30 30 30 30 30 30 30 30 30 2F 30 31 30 30 32 32 31 32 3A 40 39 30 30 30 30 30 30 30 30 30 30 31 30 29 24 26 29 2C 34 35 3A 49 4F 49 3D 32 30 30 30 30 30 2F 2E 30 36 44 5B 5F 56 43 34 39 42 56 67 71 6E 61 49 34 30 30 30 30 2F 26 1E 2B 32 29 52 58 5A 58 5D 65 6E 74 75 78 79 69 46 33 35 31 30 2C 1A 1D 21 2E 2C 02 2F 43 5D 78 00 00 00 00 7B 79 77 5D 43 36 34 31 31 2A 0A 0A 11 2A 3A 34 7C 00 00 7E 79 7E 00 00 00 6A 5A 4C 3C 2C 30 30 30 2D 1A 0C 0F 15 26 60 7D 79 73 7D 7E 7E 7B 00 00 69 4E 53 3E 2E 30 30 30 30 2C 28 27 1F 34 71 78 78 74 78 73 62 79 00 7E 68 5B 5A 3A 2F 31 30 30 30 30 33 39 42 46 58 5C 72 7A 77 6E 60 78 00 6E 4E 63 5F 39 35 30 2E 2E 30 30 32 40 54 53 49 50 78 7D 7A 73 73 7D 7E 50 37 4D 4A 2B 28 23 21 26 30 30 36 44 50 4F 54 4F 69 74 70 69 77 7E 7D 55 4C 49 34 17 28 29 2D 2F 30 30 37 42 4A 55 64 62 60 60 5C 67 79 00 7B 49 4F 58 50 31 2F 2F 30 30 30 30 31 37 40 59 6B 72 74 73 70 70 6B 76 6E 2E 2F 43 49 43 32 2E 30 30 30 30 2F 2F 37 4E 54 5C 6C 71 72 76 68 7A 7B 5B 53 4C 47 38 30 30 30 30 30 30 30 30 31 39 33 39 58 5F 66 6F 61 7A 77 22 1D 38 37 2E 2F 30 30 30 30 30 30 30 30 2F 2C 2E 39 3B 41 4A 41 6E 55 -1 0A 31 37 31 30 30 30 30 30 30 30 30 30 30 2F 31 33 31 30 37 45 6E 49 2A 27 2F 31 30 30 30 30 30
// Row 22 (weights pointing to neuron 22)
00 00 00 00 00 00 00 00 00 00 00 00 00 00 00 00 00 00 00 00 00 00 00 00 00 00 00 00 00 00 00 00 00 00 00 00 00 00 00 00 00 00 00 00 00 00 00 00 00 00 00 00 00 00 00 00 00 00 00 00 00 00 00 00 00 00 00 00 00 00 00 00 00 00 00 00 00 00 00 00 00 00 00 00 00 00 00 00 00 00 00 00 00 00 00 00 00 00 00 00 00 00 00 00 00 00 00 00 00 00 00 00 00 00 00 00 00 00 00 00 00 00 00 00 00 00 00 00 00 00 00 00 00 00 00 00 00 00 00 00 00 00 00 00 00 00 00 00 00 00 00 00 00 00 00 00 00 00 00 00 00 00 00 00 00 00 00 00 00 00 00 00 00 00 00 00 00 00 00 00 00 00 00 00 00 00 00 00 00 00 00 00 00 00 00 00 00 00 00 00 00 00 00 00 00 00 00 00 00 00 00 00 00 00 00 00 00 00 00 00 00 00 00 00 00 00 00 00 00 00 00 00 00 00 00 00 00 00 00 00 00 00 00 00 00 00 00 00 00 00 00 00 00 00 00 00 00 00 00 00 00 00 00 00 00 00 00 00 00 00 00 00 00 00 00 00 00 00 00 00 00 00 00 00 00 00 00 00 00 00 00 00 00 00 00 00 00 00 00 00 00 00 00 00 00 00 00 00 00 00 00 00 00 00 00 00 00 00 00 00 00 00 00 00 00 00 00 00 00 00 00 00 00 00 00 00 00 00 00 00 00 00 00 00 00 00 00 00 00 00 00 00 00 00 00 00 00 00 00 00 00 00 00 00 00 00 00 00 00 00 00 00 00 00 00 00 00 00 00 00 00 00 00 00 00 00 00 00 00 00 00 00 00 00 00 00 00 00 00 00 00 00 00 00 00 00 00 00 00 00 00 00 00 00 00 00 00 00 00 00 00 00 00 00 00 00 00 00 00 00 00 00
// Row 23 (weights pointing to neuron 23)
00 00 00 00 00 00 00 00 00 00 00 00 00 00 00 00 00 00 00 00 00 00 00 00 00 00 00 00 00 00 00 00 00 00 00 00 00 00 00 00 00 00 00 00 00 00 00 00 00 00 00 00 00 00 00 00 00 00 00 00 00 00 00 00 00 00 00 00 00 00 00 00 00 00 00 00 00 00 00 00 00 00 00 00 00 00 00 00 00 00 00 00 00 00 00 00 00 00 00 00 00 00 00 00 00 00 00 00 00 00 00 00 00 00 00 00 00 00 00 00 00 00 00 00 00 00 00 00 00 00 00 00 00 00 00 00 00 00 00 00 00 00 00 00 00 00 00 00 00 00 00 00 00 00 00 00 00 00 00 00 00 00 00 00 00 00 00 00 00 00 00 00 00 00 00 00 00 00 00 00 00 00 00 00 00 00 00 00 00 00 00 00 00 00 00 00 00 00 00 00 00 00 00 00 00 00 00 00 00 00 00 00 00 00 00 00 00 00 00 00 00 00 00 00 00 00 00 00 00 00 00 00 00 00 00 00 00 00 00 00 00 00 00 00 00 00 00 00 00 00 00 00 00 00 00 00 00 00 00 00 00 00 00 00 00 00 00 00 00 00 00 00 00 00 00 00 00 00 00 00 00 00 00 00 00 00 00 00 00 00 00 00 00 00 00 00 00 00 00 00 00 00 00 00 00 00 00 00 00 00 00 00 00 00 00 00 00 00 00 00 00 00 00 00 00 00 00 00 00 00 00 00 00 00 00 00 00 00 00 00 00 00 00 00 00 00 00 00 00 00 00 00 00 00 00 00 00 00 00 00 00 00 00 00 00 00 00 00 00 00 00 00 00 00 00 00 00 00 00 00 00 00 00 00 00 00 00 00 00 00 00 00 00 00 00 00 00 00 00 00 00 00 00 00 00 00 00 00 00 00 00 00 00 00 00 00 00 00 00 00 00 00 00 00 00 00 00 00 00 00 00 00
// Row 24 (weights pointing to neuron 24)
73 04 7D 72 7E 7E 02 75 7A 04 02 7A 09 76 71 04 06 03 7C 07 7A 78 71 03 05 02 07 73 79 0A 04 72 0C 7B 0C 09 04 0E 74 06 7A 77 04 08 71 0A 01 78 06 7C 78 7A 77 05 0F 15 12 08 0D 14 0F 0F 74 75 09 00 6D 6C 7E 08 08 78 04 05 08 0F 12 0F 1B 12 14 04 0D 75 72 74 76 5B 5E 5E 52 55 6D 6C 04 7A 77 76 06 10 0F 1A 0F 70 66 4E 49 3A 42 5A 45 3D 43 53 58 4E 58 73 01 7B 73 09 76 0C 19 08 79 73 54 45 35 4E 63 71 6B 59 73 73 01 70 5A 6E 73 04 79 06 03 0E 13 03 01 53 52 3D 2E 76 49 5B 51 2E 23 34 25 0C 75 70 7E 05 06 04 04 79 07 70 6C 68 66 66 74 26 76 7F 52 29 43 56 54 2D 77 6F 7C 79 01 09 72 03 73 77 5C 7A 74 07 17 2E 39 53 33 09 1E 47 31 0A 67 04 04 02 76 7D 03 7D 7E 70 6D 67 6A 7D 0D 2D 3C 38 36 49 40 2A 0D 74 65 73 79 08 75 08 06 78 71 00 05 1A 09 11 32 46 3F 35 34 1F 19 73 78 68 7D 74 75 7C 00 74 7E 0D 03 7C 1D 34 2D 47 5C 68 42 28 17 05 74 76 70 6E 07 7D 74 06 04 02 03 0B 7A 78 7B 11 2B 32 40 3B 22 18 0F 0F 08 04 79 74 79 06 77 08 76 74 79 07 02 68 66 5D 70 58 4C 59 76 6B 79 10 04 7A 6E 6F 05 74 76 70 00 75 03 0D 07 79 6D 5E 51 40 3F 39 55 52 5A 67 6A 6E 72 6B 04 09 78 08 02 76 0A 79 7C 09 05 00 73 5B 64 5E 63 74 6B 75 76 71 01 77 79 09 06 00 04 77 00 77 73 7C 0A 7D 7C 7B 0A 72 79 02 6D 7B 73 70 02 71 75 01 03 71 07 02 70 71 7B 7E 78 7E 05 06 73 7A 01 74 00 71 05 04 75 00 77 78 0A 05
// Row 25 (weights pointing to neuron 25)
7C 05 72 05 03 79 77 7B 7D 72 00 7B 06 04 05 76 06 06 73 7D 04 00 04 72 7B 79 7C 71 7E 07 04 78 02 7D 10 0C 0F 0A 7C 7E 01 7B 03 06 06 75 7B 72 04 79 05 72 04 7C 7D 7E 12 18 1A 1E 24 26 1B 06 05 01 7A 71 02 00 76 7E 74 02 76 73 05 0B 78 0D 7E 01 09 1D 19 1D 17 17 04 75 79 67 6D 6A 79 05 04 02 73 7B 01 7E 7A 00 76 00 78 66 5A 6D 75 74 06 7B 73 6A 66 6B 76 06 75 03 06 01 13 0A 04 00 0F 13 19 2C 2E 15 6C 79 72 6F 79 7A 73 6B 71 7A 01 09 0A 0B 06 07 1D 01 04 02 1C 5D 7F 29 10 7D 7B 7A 0C 08 07 09 07 79 04 03 79 02 08 6E 70 53 51 51 03 68 5B 07 5D 0B 16 08 1A 18 16 11 08 74 73 00 04 7E 6B 5F 50 48 3E 33 62 29 2D 65 5E 77 77 74 02 18 20 03 78 05 75 77 00 78 5A 48 44 36 46 30 40 08 18 03 5C 64 77 7D 0E 06 0F 07 78 7D 74 02 02 7C 77 69 4F 43 4C 53 4E 74 14 50 35 46 73 03 12 09 15 1B 0A 78 05 02 77 7C 11 78 07 08 05 10 75 6E 74 4E 4D 70 7E 18 18 29 11 15 78 76 7D 73 7D 12 1A 12 2D 48 47 47 45 38 13 7B 7D 02 0C 09 15 1F 15 0F 09 72 04 72 7D 12 1E 22 32 45 3F 45 4A 2B 29 02 7A 77 01 7C 7D 7A 03 79 72 7D 05 03 09 7E 14 22 24 1E 18 16 19 23 0F 03 6E 60 66 6A 6C 7D 72 76 00 01 02 07 73 7D 79 0B 7E 0F 7D 70 7D 0B 0E 07 74 6E 71 74 6A 00 6F 7C 75 72 78 73 7C 75 79 05 01 79 76 05 09 05 10 10 12 0E 72 71 76 04 7C 01 7D 7E 03 04 00 70 7D 7C 74 06 7E 7A 78 06 7D 78 03 08 01 03 7B 75 75 72 03 7C
// Row 26 (weights pointing to neuron 26)
78 03 76 75 00 76 03 03 08 04 7A 7E 02 79 04 01 02 01 7B 00 01 77 03 08 75 77 06 07 7A 09 77 77 75 05 78 79 76 71 01 7E 7E 01 7A 7A 7B 7A 06 75 06 7E 77 7A 7B 77 06 03 7D 70 6B 62 6F 62 62 72 74 7B 7E 01 00 7A 7D 05 78 06 07 01 77 78 01 78 6F 04 7B 0C 73 6D 00 03 6D 77 7E 7B 03 0A 76 02 03 78 04 7D 70 7C 7C 7B 6F 73 6B 63 6E 73 64 60 69 6E 6D 01 10 06 00 05 01 01 03 76 75 71 74 6B 64 59 61 7A 7B 69 51 5A 57 72 78 0D 1C 1C 7D 08 7B 7C 7D 03 10 08 13 0B 09 25 4C 7C 4F 68 4A 62 79 0A 03 16 19 05 78 7C 07 7E 75 02 24 34 3D 46 5B 61 73 7F 40 65 63 7E 03 02 0F 0F 0E 0B 79 7D 7C 00 04 0F 28 3E 55 51 41 2F 21 15 7D 6B 7A 00 18 18 07 14 06 7D 75 77 09 01 79 7D 22 2E 18 0F 75 67 62 5F 54 66 77 05 07 7D 05 09 03 7B 05 7E 07 04 7D 72 78 79 68 73 5F 68 67 58 60 00 13 7A 72 02 02 0B 7B 74 77 03 07 79 03 71 66 71 74 76 76 03 6E 59 02 16 0E 7C 04 06 07 79 76 6E 04 05 7E 7A 7A 6A 6D 78 7D 78 06 7B 73 72 13 14 7B 78 75 04 78 76 76 6F 77 02 79 79 7D 62 64 6D 77 72 77 7B 05 0B 02 05 05 02 7D 77 7E 71 6E 7B 06 05 7D 75 79 78 6A 61 6C 0B 00 09 1A 0D 04 7E 08 79 7D 06 7C 7A 77 04 7E 09 79 7B 79 72 67 61 71 01 7E 7E 01 74 09 01 11 0B 11 10 10 0B 7A 74 04 75 00 04 01 77 75 79 01 79 6E 6D 62 62 7A 7E 7B 02 10 08 01 02 09 7B 79 7E 75 7D 7E 02 77 78 05 08 74 01 7C 77 74 01 7B 7B 00 7A 7E 02 79 04 7A 06
// Row 27 (weights pointing to neuron 27)
00 04 07 7E 7C 06 01 7B 7E 7A 00 09 7D 7A 7E 7C 07 09 0C 7E 77 05 03 08 00 7C 0A 0A 7B 0C 0B 03 03 76 70 72 75 06 7E 04 76 7C 7B 0A 01 08 0A 7A 79 00 7A 7A 7E 7E 07 03 02 05 78 04 06 07 03 05 78 11 05 09 00 0C 78 7E 79 0A 7B 7D 11 10 16 13 17 03 05 00 5F 60 54 60 68 7C 08 7B 7E 09 7D 00 7A 78 03 10 10 1C 14 1F 30 28 24 24 07 07 08 00 0F 18 0F 7E 01 02 7A 02 04 05 0B 09 21 31 28 29 20 14 1E 0C 0E 0B 73 7E 12 0D 0C 02 7C 06 08 7B 04 78 0B 0E 20 23 26 19 0E 0A 0A 1C 3A 3A 08 7B 74 74 0B 01 09 07 02 79 7D 0D 06 1B 10 05 03 74 79 0B 0B 33 7F 6D 38 28 03 7B 67 6E 74 01 0B 0C 08 79 08 08 79 62 5B 56 61 46 50 0C 57 3B 25 06 70 71 5B 52 58 7C 10 7B 0B 09 0B 77 6D 48 28 3D 2B 19 20 01 22 10 76 71 6F 00 65 54 4C 7D 08 09 0D 7A 09 72 5D 39 2F 31 2E 2B 49 7E 04 63 53 4B 66 78 63 5C 68 7E 00 0B 09 08 7C 0B 60 44 3B 3F 3A 42 63 06 0B 72 4A 5E 60 60 5A 6A 7B 78 0C 07 76 7C 0D 09 00 62 59 6B 60 6D 79 16 0F 7C 78 7A 76 71 71 78 0A 0A 0E 07 04 0B 0C 79 75 7D 7A 01 00 76 5F 79 02 00 0C 05 79 00 72 7E 06 7A 78 0D 08 0B 07 0A 12 11 04 02 6A 64 5A 5C 72 72 06 0D 07 09 7B 7C 0F 03 0B 0B 03 7C 06 0B 08 1E 11 11 18 10 09 0A 0D 1C 26 12 08 08 06 77 0B 77 07 07 79 09 7B 06 02 08 0D 23 2D 24 2E 24 26 2D 28 21 1C 10 07 77 05 7D 05 7B 02 0C 7B 7B 7D 00 7A 12 00 04 7D 06 11 0A 09 03 0F 7C 0C 79 01 08 06 7B
// Row 28 (weights pointing to neuron 28)
00 00 00 00 00 00 00 00 00 00 00 00 00 00 00 00 00 00 00 00 00 00 00 00 00 00 00 00 00 00 00 00 00 00 00 00 00 00 00 00 00 00 00 00 00 00 00 00 00 00 00 00 00 00 00 00 00 00 00 00 00 00 00 00 00 00 00 00 00 00 00 00 00 00 00 00 00 00 00 00 00 00 00 00 00 00 00 00 00 00 00 00 00 00 00 00 00 00 00 00 00 00 00 00 00 00 00 00 00 00 00 00 00 00 00 00 00 00 00 00 00 00 00 00 00 00 00 00 00 00 00 00 00 00 00 00 00 00 00 00 00 00 00 00 00 00 00 00 00 00 00 00 00 00 00 00 00 00 00 00 00 00 00 00 00 00 00 00 00 00 00 00 00 00 00 00 00 00 00 00 00 00 00 00 00 00 00 00 00 00 00 00 00 00 00 00 00 00 00 00 00 00 00 00 00 00 00 00 00 00 00 00 00 00 00 00 00 00 00 00 00 00 00 00 00 00 00 00 00 00 00 00 00 00 00 00 00 00 00 00 00 00 00 00 00 00 00 00 00 00 00 00 00 00 00 00 00 00 00 00 00 00 00 00 00 00 00 00 00 00 00 00 00 00 00 00 00 00 00 00 00 00 00 00 00 00 00 00 00 00 00 00 00 00 00 00 00 00 00 00 00 00 00 00 00 00 00 00 00 00 00 00 00 00 00 00 00 00 00 00 00 00 00 00 00 00 00 00 00 00 00 00 00 00 00 00 00 00 00 00 00 00 00 00 00 00 00 00 00 00 00 00 00 00 00 00 00 00 00 00 00 00 00 00 00 00 00 00 00 00 00 00 00 00 00 00 00 00 00 00 00 00 00 00 00 00 00 00 00 00 00 00 00 00 00 00 00 00 00 00 00 00 00 00 00 00 00 00 00 00 00 00 00 00 00 00 00 00 00 00 00 00 00 00 00 00 00 00 00 00 00 00
// Row 29 (weights pointing to neuron 29)
67 6C 69 75 73 6B 6E 77 78 7B 74 65 69 67 74 6E 6A 66 75 6E 75 70 6B 66 6A 76 6A 75 72 76 6E 6D 6A 69 6E 7B 74 7B 77 72 79 72 75 7A 79 73 71 67 7C 67 7C 77 66 6F 75 03 0F 05 0F 0D 03 01 77 72 73 66 71 67 6E 75 72 73 77 75 71 6B 7E 02 16 1E 36 33 38 2A 19 14 2F 1D 11 0F 69 58 60 7D 69 76 69 75 6F 71 78 1B 22 3A 34 16 0B 02 6F 71 7A 0C 0E 05 7D 67 06 74 6D 66 7C 7B 79 01 11 24 26 37 2A 1A 06 71 61 72 02 00 06 0B 14 10 1C 0C 79 78 7D 65 78 75 7D 22 2F 25 23 1B 07 67 47 56 13 2C 28 2C 18 2B 2D 1B 00 6C 6C 6A 6D 78 05 17 0F 00 71 6B 60 4B 26 28 08 16 0B 0C 0F 11 0C 7C 78 79 6D 6E 73 74 6B 7C 72 73 53 65 5F 4E 00 25 64 76 01 7C 0C 13 16 7B 7D 72 69 6C 70 69 77 0D 0A 01 73 6C 6D 49 26 25 5E 00 0D 19 06 08 0E 7D 73 6F 76 6D 6B 7B 0C 2C 2F 18 03 6F 01 68 2F 4A 08 34 2B 2E 19 1E 0A 0B 05 71 69 68 6C 79 14 51 58 45 2B 1B 06 4F 3A 0F 53 4D 4A 39 2D 37 21 16 04 78 74 7C 7B 7A 2A 41 63 5C 35 16 7C 57 72 2C 48 41 45 36 2E 26 16 04 77 6B 72 68 74 0A 16 1C 3D 23 1D 02 75 77 7C 15 27 20 23 3D 24 25 11 6D 67 7C 6D 72 6A 77 6F 03 70 71 07 18 30 2D 22 22 0B 0D 1A 1F 15 16 70 7B 76 7C 6A 77 78 71 6F 6C 62 77 02 12 1D 30 1B 1E 07 77 72 01 70 78 6F 7B 7C 6C 76 6C 69 74 62 61 74 62 73 77 7B 00 00 74 00 74 73 76 67 7C 76 78 67 76 6C 6A 79 70 70 6B 6A 66 69 6E 78 70 65 70 71 70 64 6F 66 65 72 68 66 6A
