// Row 0 (weights pointing to neuron 0)
FD
FF
00
01
02
FE
FF
00
FF
02
02
03
FE
FE
00
01
01
00
FF
FE
01
02
01
FF
02
02
02
01
FF
00
03
02
FD
02
FE
FF
02
FD
FD
E2
DF
FE
00
EF
EA
FC
FE
FD
FE
FE
02
FF
FF
00
FF
02
FE
02
00
03
FE
FE
02
F8
FC
E1
DF
E9
F8
03
03
F0
F3
F8
F1
0E
08
18
1D
E6
F4
EF
FF
00
FF
00
FF
FF
02
E3
EC
EF
EB
FB
D7
C9
E1
E9
F6
F2
DB
09
01
F3
DB
05
25
2E
2A
F9
03
02
01
02
F1
FE
FD
EF
F4
EF
DB
F2
EC
EC
F2
F7
F5
F8
F4
0C
02
12
FA
1D
13
2A
31
10
E1
FE
01
00
02
E4
D3
C9
E3
EB
FE
F5
07
02
F5
04
07
F5
FC
01
0A
02
18
0F
08
13
FC
42
FC
02
FF
02
13
EA
EF
E1
F1
0A
F9
06
06
0B
15
0C
09
0F
0C
0D
F9
1C
06
10
11
1A
45
5F
2D
0A
03
F3
F3
F1
D3
E1
F8
FE
0E
13
18
18
11
18
FD
1B
03
04
04
05
03
03
0B
20
4F
5B
2A
FB
FE
0C
FF
E1
DA
10
FD
FD
0B
12
0F
15
11
0E
06
F5
F7
FA
02
F7
F6
05
FE
25
7F
74
45
14
FE
FE
11
F2
DE
FC
10
FC
21
14
27
2F
29
1E
EA
D9
F3
F5
F7
FD
05
0F
16
24
69
7C
23
01
FD
06
F1
E7
0D
08
16
24
32
3F
36
40
33
2A
F6
DC
D4
EC
09
0B
17
10
19
20
35
47
4A
10
FE
E6
EC
D1
16
26
3C
5C
4C
50
3C
23
1D
1D
0F
E9
F9
FD
00
FF
04
1D
2A
20
27
21
2F
FE
FE
FD
F3
2B
36
37
50
52
48
27
16
1F
07
0E
00
F3
F5
FC
04
04
20
31
51
37
06
EB
16
00
02
08
0A
2D
11
44
30
30
24
0E
0D
09
00
FC
F4
07
FF
FA
01
17
31
2D
3B
16
14
E6
FB
DD
FE
F6
09
23
1F
25
2D
21
05
07
18
04
F8
02
FD
F5
03
02
F0
11
13
07
19
0B
10
DE
D5
00
FF
F8
06
01
FA
FE
E7
08
05
12
0D
F9
FD
EF
FD
FA
F8
05
13
19
04
02
01
01
ED
E3
D1
EB
02
00
E7
CE
EA
EC
EB
EA
2B
09
04
06
FA
E1
FB
0F
03
09
01
02
FE
FB
EC
FB
E6
AA
C0
DF
01
01
E6
BE
DB
EC
F1
FC
13
34
2E
1B
10
01
0B
02
FF
0E
07
01
08
FD
EA
E4
EA
AA
CE
00
01
03
DA
D0
D9
D9
F0
06
17
1A
29
14
0B
0E
01
03
FB
F8
F6
FE
05
FE
F7
D8
E5
B2
EC
EA
03
01
01
DA
DA
F7
F8
FA
FC
05
FF
F4
FE
FC
FC
F1
F3
EE
FB
05
03
E0
F8
FD
DD
BE
D9
FD
FE
10
EA
D4
D8
FD
EA
F5
FD
F5
F8
F3
0D
0B
F7
F9
00
F7
02
07
F4
00
0F
F7
E1
BD
E8
02
01
00
ED
F7
DF
F0
02
F8
F4
02
01
0B
16
0C
10
0C
05
FF
01
F8
0A
16
03
D7
F5
DD
FE
01
02
FF
E1
C7
E3
E8
F6
F1
03
F8
08
06
1A
1D
10
12
0B
00
08
F5
E7
F6
E9
E9
FC
06
FB
00
FF
FD
ED
D2
D7
E3
F5
E4
F7
00
0A
14
15
21
1C
12
13
09
FC
06
08
FC
D9
07
DA
EA
EB
01
FF
01
F2
F9
EA
FB
E6
D8
03
03
0B
FD
13
FD
0F
19
09
08
20
27
0A
08
0A
10
E5
DD
01
02
03
FD
03
17
F8
E4
D1
00
DF
E4
FA
0C
03
0F
1C
28
2A
2E
08
2C
26
07
09
12
F3
01
02
03
01
03
01
FE
E0
E5
0B
0E
F7
04
1A
19
2B
EF
F6
F7
0A
EA
DE
CF
F2
FE
09
F7
01
02
FF
FE
02
FE
02
FE
03
F7
FC
D7
D0
D6
D8
CD
C7
E5
F0
23
DF
0C
DE
EB
EF
E8
1E
02
01
02
00
FE

// Row 1 (weights pointing to neuron 1)
04
00
FD
01
04
00
04
03
FF
FD
03
00
01
FF
FC
FE
FF
03
01
02
00
FD
04
FE
FC
FC
03
02
03
00
02
01
FD
FD
01
FE
FC
02
00
D8
D9
02
02
1B
D3
FC
01
FB
03
02
02
04
FD
FC
02
04
03
02
FD
02
FC
00
FC
FB
FC
F3
E6
FD
D3
FB
10
0C
1D
15
0A
EB
F9
F4
FA
DD
FE
00
00
FC
03
FD
04
FD
FF
28
E2
1D
D4
FD
CA
C6
99
0D
E1
CD
D3
C5
C1
BB
BB
D5
04
D9
D4
E2
03
02
FC
00
14
02
0F
00
C9
C5
CA
E5
E8
D1
E1
EB
F9
09
16
11
FB
ED
D7
F7
F4
F4
E3
00
21
00
FF
FE
04
11
2E
FB
EE
EB
09
E8
DE
F0
04
06
F0
08
E7
F3
EC
FA
D5
F8
FC
CD
0E
11
1C
FE
03
FE
E7
27
F9
0B
0F
0B
06
15
1A
20
21
2F
37
39
3E
4A
36
2A
16
09
FB
D2
AC
FB
DB
FE
02
F8
0C
00
F5
06
1D
F8
F9
11
1F
28
3E
37
38
46
3E
44
30
38
21
1C
FC
F7
F7
C4
F0
ED
03
1A
02
E3
07
2B
01
08
18
18
29
15
27
21
44
22
1C
17
21
28
12
1A
09
16
EC
C3
CB
FC
04
16
2F
3A
ED
10
23
FA
17
13
35
2C
24
18
27
10
13
1E
12
28
2A
E6
06
F0
EE
D2
EA
FB
06
18
0A
19
F6
04
07
2C
31
13
1D
11
15
10
13
F2
FC
15
2E
26
33
1E
14
10
E2
AB
B2
D8
FF
2E
40
1C
1C
0E
23
44
22
22
22
20
E7
12
39
24
12
3C
2C
24
35
40
47
40
FA
E9
BD
FD
FF
2F
43
1A
03
2A
2C
2B
1D
15
F3
DD
BA
E8
28
0E
02
24
33
31
29
48
5D
77
52
F3
1D
01
FC
0A
3C
14
1D
31
0D
14
16
13
F5
C9
C4
0B
1C
16
25
13
1E
2A
12
32
46
40
38
D9
F8
D1
02
20
10
31
06
0B
10
09
FC
EC
FA
D8
E2
08
0A
12
12
0B
04
13
1C
14
14
1E
E3
F6
D7
04
03
F2
02
02
24
11
1E
11
F1
F1
ED
E3
DD
FC
EE
F6
04
0D
33
02
01
27
22
01
F1
AB
D0
E9
FD
03
E6
ED
FB
F3
EC
02
11
0E
EE
F0
EE
F1
E1
F9
11
04
10
F9
DF
F1
04
F7
CC
C0
DA
D9
04
FD
D3
F3
E0
D4
CB
FB
12
03
ED
06
F6
00
F5
02
03
FB
ED
03
EA
F6
FA
D5
C2
9E
D8
FC
01
FD
D6
D3
CA
BC
CC
E0
FE
14
0B
FF
E8
03
ED
E0
DE
F0
03
05
E8
E5
F2
C2
9B
D1
F5
ED
02
FF
CA
ED
C1
D1
EE
EF
F2
F2
07
E7
F0
D5
DF
D4
DB
E9
E3
F1
EE
DC
0F
14
B9
00
DD
00
03
E8
E3
E4
B6
DE
16
0E
F5
0A
E9
D6
ED
DF
E2
DE
F5
F1
E1
0A
E7
FB
E1
D0
D4
10
E2
03
02
FB
F7
92
97
D8
0D
F3
F9
0A
0A
FD
F0
F3
E7
E9
05
EA
F5
E6
F1
F1
CD
AF
26
1F
FD
04
FE
00
C4
BB
C9
F1
11
10
0F
07
10
04
0A
F8
05
07
16
04
ED
DA
BA
D5
E2
FE
31
17
01
FF
FD
03
EF
B3
EF
E1
26
37
35
02
05
07
04
15
14
03
06
00
EC
E1
DA
F7
0F
31
21
DF
ED
FF
FD
02
F0
07
07
26
28
2E
31
03
15
08
0C
FC
F7
08
EA
04
06
04
19
3B
25
2B
23
D0
FC
04
FD
02
03
EE
F6
47
07
39
3A
33
0D
1F
0D
15
1B
29
3F
28
28
48
7F
4B
30
30
17
03
FE
02
02
FD
FE
FF
17
35
2F
4F
4E
1F
45
42
33
40
5F
38
4A
52
5A
2A
41
29
44
0B
FE
FD
03
00
FF
FE
04
01
FC
0C
06
3E
42
0C
45
0C
27
52
45
0F
2E
39
1D
FC
18
E1
28
01
02
02
03
02

// Row 2 (weights pointing to neuron 2)
01
FF
00
FF
FD
FE
FE
FD
03
01
FF
00
03
01
01
02
02
FD
00
FE
FD
FF
FE
01
FD
03
00
00
FE
FF
00
00
FE
01
FF
FF
00
FF
02
26
26
00
F5
10
22
05
FF
00
02
FF
01
00
01
03
02
FE
01
02
00
01
00
FF
00
05
03
06
25
D9
12
EB
E4
F7
34
11
1F
F9
ED
05
17
1F
15
10
FE
00
FF
01
01
00
FF
DD
0D
D1
11
EB
0F
3E
1A
32
26
34
4A
24
01
F5
E8
E2
ED
E4
01
1E
00
03
01
FD
0B
03
D7
CD
D6
EB
F8
03
FD
FD
F8
09
13
1D
FF
00
07
F4
00
E2
EC
D6
C4
1B
C9
01
FE
FD
00
FB
E5
C3
F7
E3
FB
FF
FA
0D
F4
0D
24
06
18
19
2C
02
FA
0C
18
DE
D3
EE
F1
FF
01
03
09
ED
E2
AC
E4
EB
E6
09
24
05
0D
0E
11
01
15
F8
EE
FA
F5
FE
22
FD
F2
E6
C5
F0
03
05
10
E1
D1
C8
DC
0D
15
22
19
1E
07
0A
07
01
07
E9
F6
03
09
0D
20
FC
FF
F4
D7
0F
FF
1D
1F
1C
E4
01
E3
1A
11
14
30
2C
25
21
1B
0F
08
01
0B
14
26
12
19
25
DD
D0
EC
D9
04
14
FB
16
0C
1F
FC
13
1E
20
07
18
16
2E
23
14
1A
21
13
14
1E
35
1C
21
23
B7
CB
03
04
FA
3A
29
17
0F
FD
01
04
28
0E
11
27
33
2F
2F
1A
1E
17
1F
28
41
30
50
39
C0
F5
21
00
0A
23
03
0A
05
07
FC
FB
01
E1
D5
06
2F
1A
EA
F4
EB
0E
0D
23
2F
24
31
17
D0
E4
01
03
06
FB
F8
ED
F2
DA
D6
F1
F0
D8
D5
DC
D4
AF
D5
D7
D2
DA
DF
FC
12
26
2F
50
27
F5
02
FF
FF
18
C5
C1
BA
D7
D7
E0
D6
F1
EE
E1
D6
D0
BB
B9
C1
BC
D7
EE
E2
11
60
54
36
01
06
FF
04
02
C2
C4
CF
EC
F9
DD
E4
06
01
0C
E9
ED
CD
D8
DB
D6
F3
F9
F6
11
3A
5F
3C
31
FD
03
F3
06
EE
CD
0C
F7
0A
00
F3
1B
16
F8
F7
F0
E0
DB
F4
F6
01
03
15
FD
39
7F
42
29
17
02
FE
15
12
0E
F5
12
0B
00
0B
11
F8
F4
FC
12
05
EC
0C
F3
F9
1B
35
10
1E
23
6F
39
18
00
04
11
0A
04
2C
29
FB
00
15
3A
1E
03
14
03
F9
FE
08
01
00
06
F9
28
2B
45
71
28
FF
FD
FE
04
E5
24
2A
11
20
0F
0A
3C
16
1E
1E
20
0E
08
1F
09
ED
05
03
25
4D
5F
54
FE
02
FD
02
FB
E9
2D
09
2E
29
36
30
35
28
38
23
23
17
1D
14
0D
05
16
FA
25
23
4E
34
18
04
01
19
E3
EF
3A
31
0E
21
43
39
58
4B
4A
3F
40
2E
1A
FB
07
0B
04
FB
1B
3A
2F
0D
16
02
FF
FF
16
37
23
1F
1C
2C
28
39
4C
5D
45
41
33
2D
0D
11
0F
12
ED
E5
07
4B
21
2D
02
FE
FE
03
2E
2A
27
14
1F
23
12
31
0C
1E
2D
22
15
0F
00
F8
04
11
24
15
08
16
E9
FA
02
00
02
FE
FD
2F
F8
25
1B
0D
FD
0A
21
1B
1A
1E
17
29
13
FD
00
09
05
0D
F1
D3
ED
25
EF
02
00
FF
08
FA
E5
00
F8
E7
EE
E1
02
07
1F
18
21
04
25
0A
06
ED
E5
CF
C4
CF
EA
2A
03
01
FD
FD
FD
12
EC
B8
D8
C1
B9
C8
E8
E8
F6
EA
F5
04
E6
E5
05
D4
9D
D3
E2
C7
EB
FE
00
FF
03
00
01
FF
C9
DD
F6
BB
E3
E5
E9
05
FA
FA
01
10
0E
DF
E1
F7
E3
C9
1B
F8
FE
00
01
FE
FE
01
FE
FD
FD
0B
0B
08
14
1D
2F
0B
13
49
F8
02
24
38
06
ED
04
EA
F9
FF
FE
FE
FE
00

// Row 3 (weights pointing to neuron 3)
FE
FF
FC
00
FF
00
03
FD
00
04
FC
03
02
FE
01
FD
FC
FC
04
FE
FD
FE
02
FF
01
FD
01
03
FC
03
03
04
00
04
FE
03
FD
02
FF
0C
0F
04
07
11
00
05
03
01
02
03
03
02
03
FD
FD
04
FE
01
03
FC
FD
00
FF
FF
FF
D0
FA
F1
0B
10
26
2B
F5
EF
31
1A
15
21
27
FD
F8
FB
01
00
FC
04
FE
FE
00
DE
13
F0
F0
22
0B
1F
23
19
15
2D
32
59
2C
2E
37
15
27
1F
2E
21
FE
00
FE
01
03
00
17
12
0F
F2
FB
08
F5
1B
FA
01
0A
0A
F9
FB
F1
22
F4
2B
44
57
13
2C
02
FE
01
01
00
05
D7
00
E5
FD
FE
09
15
02
F9
15
0A
0F
01
EB
13
0C
24
0D
1E
24
01
5B
05
04
FD
FF
E2
DC
E4
EC
FE
DE
E2
FE
05
FC
0C
14
19
1F
1E
FC
12
2A
26
14
0E
33
50
50
2A
02
FE
03
D3
0C
C0
F2
DA
ED
03
01
FC
0C
18
14
2B
2B
0E
0C
21
0F
31
13
07
10
41
4A
24
06
03
17
EA
F8
B3
DC
DB
EA
F2
DB
F5
19
25
23
36
1E
04
F0
F6
F6
1B
09
FE
12
36
3E
37
09
03
13
19
D6
D6
C2
EE
E7
F0
01
04
34
47
57
21
E8
CE
A9
C7
B5
D0
D3
E2
EA
07
3A
F0
04
06
0F
35
2F
29
F5
1E
11
EB
16
35
36
30
4F
11
BE
96
96
B2
9B
A9
A5
B4
AC
CE
4D
54
12
03
F5
13
1F
40
32
2D
25
34
28
26
19
22
25
F8
C7
D3
E8
F4
DC
C3
AE
9F
80
AD
0E
38
FD
06
06
1E
1F
41
3D
2E
29
07
08
19
16
EB
E2
FC
E5
DB
FC
00
FD
05
D7
D6
AE
94
EC
08
FD
03
0F
3F
17
22
2C
4A
23
25
FE
0A
FB
01
00
09
F4
D3
DE
01
08
19
C4
FF
FC
EC
F6
F5
E9
01
13
0B
3C
15
0D
24
11
0B
FB
FB
CB
DA
CD
FD
EF
D4
E5
E5
F4
F8
E7
1A
3D
42
11
D3
FE
FC
15
22
16
E9
EE
E8
FD
13
05
F6
C9
D8
E1
EE
EB
DE
E0
F8
FA
11
FC
11
57
46
39
DA
00
02
04
18
03
D8
ED
C0
E1
DD
D7
DD
F6
DB
D0
ED
D2
DA
F5
F2
22
18
13
30
2F
17
AF
B8
D0
FE
00
F1
2A
E9
E3
DA
DE
C0
C0
CC
E7
D9
AE
CC
EB
DE
05
18
08
19
25
14
1E
19
C9
CC
FD
00
FF
21
3F
1E
11
01
F9
E0
B9
CA
C4
A5
D0
F4
F9
E6
21
1B
1B
25
2F
18
10
2A
EC
EB
E0
02
FE
15
4A
3C
39
05
16
13
EB
DA
BF
D7
EC
00
05
1C
1A
1D
18
14
00
0F
16
2C
CD
DC
F6
FD
05
ED
09
0D
12
EC
FA
23
08
F4
F8
0C
1D
10
23
29
31
09
26
0A
02
38
36
21
9F
05
02
00
FC
F0
07
12
11
F5
0C
1E
0B
19
0F
27
25
35
34
29
19
18
08
05
24
28
F2
ED
CD
00
03
FC
FF
FC
D4
EA
12
CF
F2
EE
F6
02
FE
1C
0E
2E
1F
2F
1A
16
1B
1A
18
FF
E2
D7
EB
0A
00
FE
FE
02
2A
FC
F6
EE
EB
EC
EF
0F
1C
10
00
1A
21
10
22
1B
0C
1B
0A
E5
CE
DB
ED
03
04
01
FC
0F
28
2B
FF
06
0E
0D
22
27
21
24
18
18
07
0D
30
2C
29
22
2A
DC
E5
D9
F3
FE
FD
FC
03
03
24
3B
19
E8
E9
DB
F7
21
F8
09
EA
1A
01
1C
1A
F7
EA
C6
E1
C9
01
00
FD
FE
FC
00
FC
03
02
F6
D7
D6
BA
E5
FB
C9
EB
02
03
E3
DA
13
E4
BE
2C
FE
0B
FC
00
02
FE
03
01
FD
04
FD
03
FF
0E
09
0C
16
1D
3A
37
45
42
F2
F0
27
43
FF
0E
1D
CF
00
00
03
FC
FE
04

// Row 4 (weights pointing to neuron 4)
02
02
02
FF
FF
FF
FD
FF
FD
05
02
03
FC
FD
FF
FE
FE
00
FD
FE
FC
FE
FC
FF
03
04
03
FD
04
00
03
02
FB
FC
04
03
08
02
FA
D7
D6
FF
EE
DD
EB
FB
FD
00
00
02
FF
02
02
FC
01
00
03
FE
03
FD
04
04
FB
F9
07
D2
26
DC
04
FB
C4
EE
F9
A8
C5
E3
EB
05
2E
2B
19
1C
FD
FD
00
FD
FF
03
00
29
F5
4E
38
F0
1A
3C
38
FF
0B
03
E2
E2
FB
F4
21
E5
E6
0F
29
23
01
FE
02
FF
00
FF
38
30
C7
0C
0F
D9
D8
D6
D6
05
F0
F2
E7
19
15
29
1F
0F
25
DB
38
D9
E5
FE
FF
02
00
FF
29
19
37
16
FA
23
CD
EA
E8
05
11
1B
1E
3C
2D
08
03
EC
C7
03
02
C9
C6
FD
FD
04
0D
21
6C
43
2C
28
10
00
1E
FD
1D
01
09
07
0D
40
01
0A
07
06
0C
FA
E0
D2
C4
E9
FD
14
09
3B
65
1C
5C
28
F2
FC
F1
11
19
34
18
2E
26
3E
1A
03
FC
E7
0F
E5
F4
F6
AF
07
03
17
37
EC
61
2E
10
07
EF
03
06
0C
1A
0D
2A
29
26
0E
17
0E
12
E6
02
EC
E8
C7
83
C7
02
13
21
0D
11
25
E7
EE
E2
EB
00
E6
1E
25
31
16
05
26
32
33
25
15
05
E3
F7
93
ED
02
FE
06
3D
20
F9
1E
F0
04
F0
F3
F3
EB
FE
0F
CD
03
1D
44
43
61
44
1C
0E
D2
D9
81
86
ED
00
24
2A
45
CF
FB
CF
E5
E0
F4
FB
13
26
F6
CD
E7
0A
22
17
34
49
2C
1D
F7
C5
9F
94
03
FC
1F
1F
29
0F
E3
08
F5
2B
2D
1A
3E
30
0F
D5
DC
19
1E
1F
26
ED
1F
1B
33
33
E6
B0
FD
02
23
2E
34
5A
2B
3F
45
24
40
42
21
EB
00
DC
DB
0F
0B
E8
17
F8
F9
3F
40
62
FA
A6
C7
FC
15
1C
2D
56
54
51
63
2D
21
14
EE
F1
E2
BC
E4
E8
FF
00
1D
1E
34
30
64
45
EC
B6
03
FD
0A
25
37
5D
3E
76
59
42
10
00
D6
DE
D0
C8
F3
ED
1A
14
20
26
41
5B
53
1A
AD
BD
DD
00
FC
FB
FA
FF
30
67
58
49
1B
19
DC
E9
D8
C4
01
15
31
41
4A
34
50
4A
05
15
E3
F6
07
FC
06
0A
C7
DA
3A
56
33
2C
12
FA
DE
DD
D9
E7
16
24
2B
42
41
2A
34
1D
0C
CA
1C
FE
01
04
00
25
FB
D9
15
0D
3E
25
F9
03
E4
E3
CA
F6
22
31
23
2E
3B
1D
24
CF
ED
CC
E5
F6
E9
FD
03
F7
37
31
26
3A
F1
01
F3
03
D8
CA
F8
0C
1E
0D
15
1F
11
00
0A
CF
E9
2C
1A
ED
FB
FE
26
22
3C
33
FD
1F
F4
F8
FF
09
F5
F8
F7
09
20
18
11
08
FB
F1
D5
B0
EC
FA
00
1D
02
FE
03
21
01
12
DC
03
F2
F7
08
E5
00
0A
06
07
00
0A
01
FC
02
F4
BB
CB
DF
1D
F2
FF
FB
00
03
FE
3A
08
BC
FE
12
20
1B
08
21
28
1B
F0
21
0A
E6
D3
ED
E8
F2
08
1D
F3
2A
F8
05
FF
01
0A
3F
F6
F2
D9
2F
0F
FF
2D
28
17
26
36
16
F5
F0
FD
DB
D9
25
0A
F1
1A
0B
DB
FC
FD
FB
FA
46
3A
44
31
1F
1A
FD
41
1A
00
1B
0B
07
1B
0B
D2
DD
1D
F1
F7
ED
19
08
FE
00
FC
02
04
EE
20
42
14
2C
22
F9
07
26
12
1C
00
0D
FF
CA
DE
E3
D7
01
00
E1
D8
02
FC
00
00
FB
03
FD
DF
22
F7
13
F3
A3
AC
CB
F1
AC
D3
F3
AE
9B
D2
18
0C
F2
09
EE
03
FC
FD
00
00
FD
04
FC
05
06
03
C4
C5
02
F2
D5
BD
3A
B2
E3
1D
26
06
CC
1E
EE
0D
05
04
02
FE
FC

// Row 5 (weights pointing to neuron 5)
00
FF
02
FF
04
01
04
FE
04
03
04
FF
FC
02
FE
00
00
03
FF
FC
02
FE
02
FF
FE
FE
01
00
FE
FE
03
02
02
01
FF
FC
06
FF
01
10
0F
02
F3
D7
F2
01
FC
00
00
00
FC
FF
FE
04
01
04
FE
FD
04
FC
03
00
FE
FB
04
2A
E7
16
24
08
CE
D3
B0
C1
D0
11
10
EC
E1
DF
FC
FB
02
FD
FE
01
02
00
FE
2B
1F
46
07
17
34
21
5C
06
02
1F
19
34
67
62
61
1D
F7
46
31
23
01
FF
03
00
E8
FD
21
39
3A
37
45
32
49
5C
52
37
50
2F
36
20
46
4B
1E
D3
DB
DF
65
38
F8
01
04
00
03
07
28
62
19
32
19
31
31
2D
2D
40
27
2B
25
1E
FF
24
28
F3
D3
20
1D
5B
F0
FD
FD
FE
14
F2
12
21
F9
F1
0F
EA
F8
F2
FB
12
05
09
FC
FB
0D
F7
0A
F2
F2
2E
7F
59
49
0D
02
0D
EB
03
18
0D
F5
FD
01
ED
F0
E5
F3
08
20
0C
0F
02
0A
F6
F8
F0
FA
19
17
57
42
0F
02
E3
FA
15
06
CC
08
FB
F3
FB
D9
DD
DD
FD
F9
0B
0F
02
FC
09
13
0B
0A
FC
40
60
66
1C
FD
EA
D5
D0
0B
EE
EC
06
DE
F5
DA
D6
E2
02
12
1B
E7
EB
0C
08
11
1F
21
52
22
6A
31
00
FF
E8
E4
E2
F8
F0
03
EF
DB
E2
E2
EB
EB
00
18
FD
F8
ED
E6
FC
F2
F1
16
FE
27
75
5F
20
00
CE
BB
D3
F8
ED
EE
CB
F8
DB
EF
08
16
06
15
F0
E3
EC
E6
FD
EB
C5
DB
E4
13
50
55
FD
FF
D4
B8
CD
E3
FA
F7
F2
E6
F2
28
33
53
60
5C
23
0E
06
F4
0B
F1
B7
B4
AC
A0
0D
2D
04
01
EE
BD
E2
D6
FD
0C
FC
06
21
1F
3D
5B
73
47
26
13
0F
1A
F6
F6
F5
D3
9B
8F
0D
20
00
FF
E4
EC
CF
DD
09
04
F9
2C
3A
25
2A
3C
50
29
19
06
08
10
E8
D3
07
EF
D8
D4
DE
EC
04
04
0F
02
DB
D8
DA
E4
DC
0A
2C
16
0F
26
2C
12
10
15
09
D4
E8
F9
DB
00
09
E5
12
25
1A
FF
FF
20
05
E9
F8
02
EB
D0
E2
0E
07
10
0D
FE
EC
0C
0D
FA
03
0C
EC
15
09
24
E4
FA
04
FC
FF
2F
34
15
10
0D
18
E5
CA
B5
BF
E4
D1
CF
03
1A
0B
0D
06
09
1A
1B
2B
15
F0
06
01
00
FD
1B
62
27
3D
4E
2D
07
DF
B4
C7
E7
D0
DF
1F
2A
18
12
2B
29
29
28
4A
1E
02
F2
17
FC
03
06
44
34
56
3D
38
1C
1F
14
FB
DD
03
FE
22
30
2A
40
28
1B
57
16
0E
0B
FF
1C
FE
FD
E5
34
46
3D
3A
49
31
29
32
16
FA
EF
04
0A
12
1C
31
3E
19
4F
2C
25
22
02
DA
F6
FE
FE
FE
1E
0F
46
37
2A
3B
35
24
FE
F2
07
0E
10
03
13
1B
22
2C
3B
2C
3A
3E
D7
BA
08
FE
02
02
2D
30
31
02
04
09
0E
04
1F
40
1F
26
09
13
0E
1A
0C
1C
4A
31
19
00
DC
E3
00
FF
FE
FC
13
58
3A
1A
F2
FE
0B
27
0F
1F
28
0D
17
18
09
1C
1A
28
30
08
15
F3
F7
0D
DD
FE
00
01
11
15
1A
F0
0F
24
04
3C
11
38
0F
1B
31
21
1B
06
FF
00
EA
F2
10
01
E9
27
FE
FE
00
01
FC
F2
16
F4
2A
13
22
1E
26
21
14
11
0D
E9
D5
D7
D2
BC
C2
E6
0A
F0
F4
01
03
04
FD
01
FC
02
0A
E7
EF
EA
EC
16
01
E9
F8
F2
DA
D1
E0
E3
E1
D3
E1
EF
E9
FE
03
02
FF
FD
02
03
04
FE
FE
EC
F1
DA
D1
F1
C9
F8
F8
A6
DE
F6
CA
C5
F3
05
EA
25
E4
03
02
03
FF
FE

// Row 6 (weights pointing to neuron 6)
02
FF
01
00
04
FF
FC
FE
FF
00
FD
FE
FF
01
FD
FD
FE
01
01
FF
03
FF
00
00
01
03
00
FF
FD
02
00
02
FF
03
01
FF
01
FF
00
2A
29
FE
03
EB
E6
01
03
FF
03
04
02
FE
FD
FF
02
02
FF
02
04
02
FF
00
04
01
FB
D5
D1
E1
15
FE
F3
EC
AD
BD
E4
16
14
24
2C
DA
F1
EF
00
FF
03
FE
FE
04
FE
E0
09
10
E7
0F
FB
FB
2C
E7
F0
F0
ED
1C
1B
09
1D
21
FF
2C
2C
1C
03
FD
FF
03
ED
FF
29
2B
0A
04
F9
05
F7
29
10
08
01
04
F2
F9
F4
11
F9
FC
17
4E
41
0E
D0
03
01
01
02
F5
D3
EF
DE
FF
02
17
1A
15
01
1B
01
FA
FD
FB
01
F0
18
F7
FD
3F
19
22
EA
00
FF
00
E4
D4
F1
FE
F8
FE
07
F8
12
11
0F
16
02
02
FD
01
EE
FE
FB
FE
FA
24
68
36
21
01
01
09
CB
09
E7
0B
F0
0C
10
10
1C
13
14
1C
0E
0E
06
0C
10
F2
00
EA
06
18
2E
55
16
0F
02
EB
0B
0C
EC
F3
0D
FA
0B
0A
02
1A
FB
FA
E9
FC
0A
17
09
F8
15
03
08
FF
41
62
44
01
FC
EC
F2
B0
E9
E5
F4
08
09
12
0B
06
04
02
F4
F2
EA
E9
10
F7
01
19
0D
11
38
4B
11
00
FE
F0
FF
ED
07
E9
15
0E
F9
10
0B
04
F3
F8
F1
F3
E9
F1
E4
F5
FD
F2
04
12
37
7E
54
23
FC
D6
CD
CB
ED
FE
11
0A
19
0D
0A
0C
14
06
FE
DE
EE
E9
F4
F9
F1
F5
EF
D6
0E
38
51
FD
FC
D5
C7
E0
F7
00
19
1D
10
12
29
2D
28
29
0C
F6
F9
F9
F0
F0
FC
EB
F2
CC
C5
02
15
04
04
F3
CA
FA
F4
16
3B
2E
32
16
19
22
36
1E
FC
FB
F2
01
0F
04
0F
02
13
E3
E7
E2
F6
D6
FD
E1
EC
F9
0E
23
1F
29
33
31
28
1D
28
0F
FF
F4
F3
02
06
01
00
14
24
0F
1F
CD
B5
02
00
0F
0B
E4
F9
F4
D7
FB
22
30
25
1F
26
01
F2
F3
F5
02
00
0E
12
F6
0E
1F
FB
FD
C0
FA
01
02
04
E6
E6
03
F4
E4
EC
E4
07
10
07
FE
E3
E9
F0
08
14
22
09
FB
05
09
07
90
B7
D3
FD
02
09
01
E7
11
0A
00
DD
EF
EC
E9
F8
CB
CF
F0
F6
1A
28
19
1B
29
FF
0F
FD
AA
C9
00
02
04
0F
39
06
0E
27
0C
00
E8
DA
E3
EB
C7
D9
12
18
1D
13
15
1B
20
07
F5
FF
A2
F5
DD
FD
05
16
27
18
37
09
1B
15
0C
FE
01
E7
F9
ED
0C
1B
1D
27
1A
0A
0B
E4
F8
EE
9D
D5
F7
01
1C
FF
20
10
0E
05
F6
14
0A
19
00
FE
FD
F8
09
06
29
21
0E
0E
FF
12
F8
EB
97
FF
00
03
03
17
22
2A
0B
0D
0B
10
FE
F7
F6
0A
07
0C
0D
16
18
07
0D
0A
11
06
D3
CE
A6
00
FE
FD
FF
12
07
09
13
F6
ED
FE
EE
01
15
1C
1A
03
0E
1D
14
04
06
01
07
DE
D3
C1
E5
FB
FF
01
FC
0C
32
15
1B
ED
F4
E9
05
07
1E
0D
05
19
1C
0D
21
10
FA
02
DD
C2
D8
C1
EF
EB
02
03
02
0D
1D
28
0D
16
1C
10
27
19
24
25
2C
2C
29
13
1D
14
01
E6
ED
DA
E5
B0
DA
01
FF
02
04
00
1F
2E
F4
2E
1B
05
1F
33
2F
3F
31
31
17
07
FB
E4
BF
86
AC
D4
E4
E0
FC
FE
FD
FC
FE
FF
00
EE
CC
DB
C4
C3
FF
DD
DF
F7
D7
A8
D9
CD
B9
A2
BA
A1
C5
CD
02
FF
FC
FC
FD
01
FD
FD
02
00
F2
F3
CF
C5
F2
CB
FB
E0
B5
C9
F1
D5
D1
C3
03
CF
1B
D5
04
FC
03
FF
FF

// Row 7 (weights pointing to neuron 7)
03
FF
03
FF
03
01
FE
01
FF
01
FF
FF
FE
FF
02
03
FE
00
01
FF
FD
02
FE
00
FE
00
FD
00
FF
FD
02
FE
FF
FD
02
FE
FE
00
03
ED
E9
03
FF
06
FA
01
FF
02
FF
FD
FF
FE
FD
00
03
04
FC
03
FE
02
00
FC
01
04
FA
0F
19
02
DA
E3
1C
1B
FD
DE
F7
F4
F9
F2
01
03
00
03
FF
FD
FE
FD
03
02
01
24
FD
1A
D3
DD
0E
0F
F8
16
E4
CE
D3
BB
C4
B2
E4
EF
EE
F5
0D
00
01
FC
01
01
04
03
0C
02
F0
E6
08
0B
17
23
2D
4D
12
CC
B9
8F
92
81
AE
C7
DF
04
F0
F8
01
FE
00
FF
03
11
26
1F
18
12
1D
1F
0C
18
13
11
F2
15
DC
BD
CB
CF
B9
C9
B6
A1
CC
E7
F5
FF
00
FE
FB
33
1C
17
29
1F
22
2F
17
14
FC
14
1E
19
0D
00
F7
EC
E2
E7
B8
D7
8B
C7
F0
FE
00
FD
1A
01
05
15
42
16
02
09
F7
0C
18
19
1F
1E
21
06
DC
D1
D6
E2
D6
A9
B3
B0
C4
EF
00
1B
07
03
25
25
05
12
13
FB
0C
09
16
23
45
1D
0E
01
D8
CA
D0
F7
DC
E2
C7
BD
B5
EC
FF
16
27
3D
10
22
0B
F6
0C
00
16
12
33
30
62
30
08
F9
E3
EA
E0
DB
D9
B4
C7
C3
C7
01
04
14
16
24
01
01
FE
07
0C
00
0E
1B
33
5D
51
FF
F1
EF
EF
EE
F7
06
FB
E4
B4
BD
CB
E4
01
2C
3F
27
10
03
04
25
00
09
17
27
22
37
1F
10
F6
0A
EF
00
16
1B
0C
E6
A8
E0
D7
FE
00
26
42
0C
FB
05
FE
02
16
15
F4
FC
DB
F4
06
F9
FE
0F
00
08
06
13
01
F4
D5
D1
FF
FE
00
13
3A
F8
0E
04
F5
FF
19
13
FE
EA
D0
01
10
F5
17
10
17
22
01
11
00
F8
DD
B0
05
16
00
17
12
08
F2
E6
F5
02
02
EA
00
E2
D9
F9
03
0C
12
0F
1D
2C
28
0B
0D
FE
CE
FF
18
01
FE
05
10
F5
10
04
10
03
FF
04
03
EE
E5
ED
ED
1B
13
16
2D
1B
1E
16
13
FA
F9
F0
07
FD
FE
00
FC
00
0E
F3
FA
FA
0B
07
EE
EA
E3
E8
E1
08
19
02
1E
14
0A
04
FE
FE
ED
33
11
FA
FF
02
F1
05
06
FD
F8
F1
F9
F5
F0
F2
DF
06
02
22
19
06
F9
FB
0F
08
FE
F4
DC
1D
0E
00
FF
03
E9
F3
30
FC
F2
DE
FB
07
F2
E8
C2
FC
10
12
0C
07
05
F5
F3
03
EC
D0
B6
10
0A
0D
00
02
EB
02
15
08
C5
EF
01
C0
D8
D1
F1
FE
10
0F
FF
05
E6
FC
FB
FC
0E
FE
D8
29
0E
FE
FE
F1
F0
11
F2
ED
DD
CA
E6
CB
C7
E2
F2
F4
24
14
07
FE
E7
05
F8
FF
EF
DA
E2
29
15
FE
01
03
FE
EF
D0
BB
B1
A5
BC
BC
D7
F2
09
FE
FE
F8
05
F9
F0
F3
F3
EC
DA
E0
1C
26
FE
03
00
01
E7
ED
D6
BF
BE
A9
C8
DB
EB
05
04
EC
FB
FD
FA
FB
F3
0A
F1
D3
FE
09
31
17
03
FD
01
00
FA
E7
E0
C8
BC
D7
D9
E1
F5
F2
FC
F9
FD
EF
E7
01
F7
DF
D8
06
23
10
17
F0
04
FE
FE
FE
ED
16
16
F6
E0
F5
F3
EF
0A
F2
F5
FB
EB
F3
E7
15
01
01
1C
2D
1F
1A
11
F3
FE
00
01
FF
02
E5
CF
DA
DB
FA
0F
20
02
0C
1E
16
11
19
2A
0F
2E
35
55
31
1E
29
06
FE
00
03
01
01
02
FD
07
ED
FD
17
38
15
24
30
17
28
46
30
34
35
3D
29
24
17
3A
0A
01
00
00
00
FD
FD
04
00
02
13
0B
33
3E
14
3A
0A
1F
4A
2D
0A
27
37
1B
00
14
E4
14
FE
00
03
00
03

// Row 8 (weights pointing to neuron 8)
03
00
FC
03
FE
01
FE
FF
FF
02
FF
FD
04
01
02
02
FF
FD
02
FF
01
FF
FE
03
FF
FC
FD
FD
01
00
FF
FF
FF
FD
04
00
FD
FF
04
FE
FA
01
13
06
D4
FF
04
FE
02
FE
04
00
01
FD
01
FE
01
03
FE
FF
01
02
00
03
FC
E8
D8
12
FF
05
01
E6
DD
EC
FA
10
05
1C
18
DB
E9
E8
03
01
03
00
03
FD
03
0C
F4
EF
D6
11
FF
D0
F2
E7
EB
DB
F5
1A
FD
DD
F9
F5
F7
0E
10
26
FE
FE
FC
FE
10
FC
FE
1E
F7
F4
FA
E0
E2
FF
F6
10
F1
2F
14
07
04
FE
01
F2
1D
38
09
FC
C6
FF
FD
01
FE
02
06
0C
06
FB
D2
E2
E3
CB
F3
F5
E0
F2
01
E6
F8
EF
FB
E9
E3
08
05
03
EC
01
00
03
08
35
03
FC
05
EE
EB
EE
F2
02
00
F7
FF
04
ED
08
F5
0B
FA
F3
DD
F5
FF
FA
03
03
00
06
F1
32
03
22
08
FA
E8
F5
FB
0A
00
0B
0D
1A
0C
03
0F
18
1B
1A
16
0C
EE
F7
FC
F5
FE
1B
09
16
13
23
FB
11
F0
E1
F5
F6
F1
16
20
12
15
1A
19
2B
2C
45
3C
1B
2B
36
23
0A
06
15
1F
0F
1B
0B
16
FA
E5
D7
DB
E8
17
2D
3C
27
2B
1D
21
23
22
31
2C
21
61
43
F6
0B
04
17
2C
2D
2B
00
0A
F5
D1
A8
D4
EB
10
2A
50
2F
2B
13
13
1B
1B
25
2D
6D
6C
7E
44
10
01
1F
37
26
1B
F1
0F
DD
C9
BD
CE
F7
15
37
46
2A
1C
09
0F
F9
F1
02
F7
1E
3B
3C
47
FF
00
25
34
27
12
0A
ED
01
E7
CF
EB
E9
03
2A
30
1C
F9
F6
F5
CE
BB
D1
BC
B4
9D
F1
F7
01
FD
EE
30
31
50
0B
22
0B
05
D5
D8
ED
01
12
1E
1B
03
FE
FA
F2
CF
CB
C3
92
AC
B0
D6
FF
00
05
F6
32
0A
F6
FE
F3
FB
ED
EC
EF
05
07
21
10
FD
09
F6
EC
00
DF
AC
8E
B2
EF
E7
02
FD
09
01
F4
16
04
F0
DA
D4
F6
DC
FB
17
FF
11
07
04
05
0A
EF
10
EC
C0
AB
C0
A9
E9
FB
02
FF
F6
E5
07
19
F7
D1
DB
DE
D0
E5
FF
1D
FF
08
16
1E
07
07
EC
C6
A3
B5
B7
BA
F7
FE
FE
FF
D8
F3
0A
28
27
13
DB
E6
F9
01
0D
1D
1A
1A
04
19
04
F1
E3
D3
BA
A9
B3
BD
05
02
FD
04
05
EF
00
04
3C
1B
F8
F4
EF
05
02
19
2B
1B
0C
1A
1A
E5
CE
C1
83
91
C4
C3
0D
03
FD
00
E8
F3
FF
07
F4
2A
FC
0D
FE
09
0D
1E
24
18
01
F5
E6
F2
E6
B1
C0
C3
D3
07
09
FF
04
16
E8
FF
DE
E3
15
FC
06
11
0A
F8
0A
05
22
16
E5
EB
DA
D7
A0
96
98
E4
02
03
0E
03
04
FE
0F
0B
EA
FF
17
05
0D
00
07
FF
FE
0E
10
FB
F4
DC
D6
C8
C5
A4
B7
CB
E4
09
01
FF
01
01
E2
0E
FB
1E
1D
04
0D
10
10
03
12
FB
0D
E6
EC
DF
BC
E1
83
BC
C7
D1
E7
EF
06
FF
03
03
EF
D1
01
0B
06
1E
0F
FF
04
0F
F8
F3
F2
F4
BB
C9
B2
9D
C1
CD
CB
02
D9
F8
20
01
03
FD
F3
0D
05
2C
26
19
1E
E9
FD
F3
0F
0A
EF
FE
DE
FC
D6
E9
F7
EA
E8
EE
00
FD
03
FE
FE
FF
01
05
FD
2E
11
2B
1D
35
20
20
2D
35
28
3A
55
1F
2F
23
20
07
FF
DD
04
00
FE
FE
02
04
FE
FF
F2
09
10
FC
12
0C
10
26
1B
1C
24
2D
14
FA
03
FD
18
09
23
02
01
01
02
FE
02
03
03
01
00
10
0C
27
32
13
34
08
0E
51
0D
F8
33
35
11
F6
16
FC
02
02
FC
01
FF
FE

// Row 9 (weights pointing to neuron 9)
FE
01
FF
00
04
FF
FF
01
FE
00
FF
FD
00
02
FF
FE
04
FE
03
00
03
04
FD
FB
FF
FE
FE
04
FE
00
00
02
01
01
02
01
FF
02
01
E5
E7
FB
08
DF
DB
F8
FD
01
FD
FE
FE
01
FE
03
01
FE
03
FF
03
03
FD
01
FD
00
00
FB
28
C7
01
21
1B
0F
F4
D8
C8
F5
FF
00
01
00
FF
02
00
FC
01
FF
00
FE
FF
FD
FE
FF
F2
06
23
EE
0E
0D
3B
FC
D8
01
CB
D5
FC
33
12
25
00
FF
03
02
04
FF
00
FD
F6
11
2E
2C
E9
C2
C3
BA
EF
0F
F1
B9
EF
12
C1
F1
24
43
26
31
41
DD
34
FC
02
FC
03
F0
F9
1D
3B
3A
02
19
FB
D5
F5
D4
F8
F5
FD
DA
CE
CC
DF
D8
C5
40
22
F5
04
FD
FF
FF
10
DF
EC
3D
11
2A
0F
E1
E7
DD
DE
BC
D5
CF
BB
E4
C5
CD
F4
10
0B
01
1D
DD
14
0E
00
FA
F9
11
17
F4
21
07
FF
EF
E0
E0
E8
FF
D1
D5
E1
EA
D7
E1
E9
FD
F3
F8
F1
06
E3
FB
FA
DE
F3
EA
1E
FB
16
FB
FE
13
EE
DC
D2
F1
D2
ED
E5
E0
EA
E9
E3
D4
E5
D4
EA
D9
C0
C6
FD
E2
D5
DB
F5
D7
D4
05
F4
F8
F9
EB
F8
E3
D2
E5
E9
EB
E8
FD
E5
ED
F2
EB
BB
D0
0B
FC
FF
E5
C4
AB
DC
E3
CF
F6
29
0F
FF
F8
FD
D6
B3
0F
09
08
FF
F6
CD
E6
F9
8F
9C
D0
B7
D5
FE
E9
C0
D5
B8
C9
E2
10
09
0D
23
40
2F
8E
9C
21
34
1D
F4
FC
FD
FD
E8
DB
E5
18
C4
03
FE
E9
BB
DF
FD
BA
21
3A
28
26
2E
51
65
F9
18
2C
4C
30
30
16
05
05
DF
E0
AC
CD
BE
FD
FE
FB
BD
01
0F
0B
26
40
24
3E
4D
5E
56
24
21
46
2F
47
39
3C
20
37
08
D8
C9
C8
C2
03
FF
E9
E6
DC
55
35
2B
30
28
42
3C
60
3B
2D
1E
35
41
3D
3F
22
18
12
FA
12
F1
B9
C0
03
01
FE
06
34
1C
ED
11
0C
12
1D
2E
45
33
07
33
3D
4A
36
11
24
03
FA
36
00
AB
B9
C1
DE
01
02
D7
03
F3
F7
F1
12
14
0E
2B
1C
19
13
24
26
36
2A
20
0A
F9
FF
FB
DC
EE
C1
D6
EF
03
FC
E7
C7
E0
CA
C4
EE
26
17
0A
FE
03
10
41
30
21
09
01
EC
EF
E1
BB
DF
BC
D8
0D
02
01
04
07
F7
D1
B2
9C
CC
02
E8
EB
11
00
06
25
23
0E
EA
C8
C3
C6
D2
9A
A1
AF
BB
FD
03
00
FB
04
ED
F5
E0
CD
97
9F
9B
D2
ED
CD
0A
12
FE
F9
D6
BD
A4
90
C9
84
9B
E7
DD
15
01
FC
FD
FF
14
CC
C1
E4
C6
80
9C
B1
E1
CC
D9
EB
ED
DA
ED
D5
A3
9E
B7
8A
CA
E1
E6
21
00
FC
FB
FA
C5
BF
B3
93
9C
BD
DB
CD
C2
CC
BC
DA
CA
D7
FD
E1
CC
F0
D1
D7
E3
F2
D7
FD
02
04
03
F7
F4
F6
98
DB
F1
F1
EB
F4
DC
C9
CC
D1
EB
DB
FB
E7
FA
E2
E6
ED
E0
F5
1D
FF
FF
03
03
01
F9
B3
0A
0E
26
EC
E9
F4
EE
E4
EC
DE
BD
E4
FC
F0
F6
ED
2B
F5
FA
D8
0F
FA
02
00
01
FD
D6
06
44
0B
EB
F2
F4
FF
ED
D9
EF
D8
D9
F2
00
01
09
22
34
1D
04
EA
F1
03
FF
FF
FE
FF
FE
10
16
17
27
1A
F7
07
02
D5
F9
F8
E6
EA
09
EA
FB
0A
25
09
F7
F8
01
FF
02
FC
FC
FC
FD
1A
2A
FD
36
FF
F5
CE
C8
E1
D8
D1
E7
CC
DF
FB
19
1A
0A
E7
FD
02
00
FF
FC
01
02
FE
FF
FF
F0
EF
B6
AA
E0
B4
E2
C6
9B
D0
16
C8
C9
EE
03
F8
20
F8
01
FE
01
FC
03

// Row 10 (weights pointing to neuron 10)
FF
00
00
FF
FE
FF
FF
01
00
00
FE
FF
01
01
00
01
01
00
00
02
00
00
00
FF
03
FF
01
02
FF
02
02
00
01
00
01
01
04
01
FD
0B
08
FE
FB
EF
EE
FC
FD
00
FD
FE
02
00
02
02
01
FE
02
FE
03
02
01
02
FF
FF
03
E2
E1
F5
0C
FC
D9
D5
D5
DD
F0
05
07
1A
14
E9
F3
F1
02
01
FE
FF
02
01
01
F1
F0
12
F3
F3
E9
09
16
F4
F2
E5
D2
06
13
FA
E9
DA
F8
0A
19
04
01
FE
FF
01
F2
02
15
1B
F4
E2
D9
07
0F
1A
17
0F
15
05
00
1A
16
22
FA
ED
F6
ED
1B
04
F6
FE
01
00
02
F6
E0
E7
DD
FC
23
19
14
22
15
36
1E
11
02
1F
0B
09
0D
FB
E4
EB
EE
1D
0D
FF
FF
02
05
E6
E7
F5
E8
1D
08
05
28
18
38
46
37
3C
38
41
1B
1E
0E
FE
FE
FD
1C
2B
EF
FE
02
F9
DF
DB
E7
E2
0F
F5
02
10
14
1E
35
50
4D
5F
42
3F
25
0D
03
F2
F6
0B
34
39
F8
06
FE
F1
FC
DF
DF
F9
05
EA
FF
11
10
09
19
20
35
23
26
0F
0C
0B
06
0B
06
2B
54
19
CE
E3
FF
F7
F9
E9
DD
FF
0C
ED
00
09
11
F8
1E
20
19
FF
E8
08
1B
22
2B
12
22
37
59
23
0D
FC
FD
F8
F7
EA
FF
FF
27
1F
13
09
00
09
07
12
F4
DA
D2
00
1D
39
3E
20
16
21
28
DE
F6
F6
00
FE
EA
F8
00
10
33
3C
2C
14
0D
18
FF
13
1A
E5
E9
0E
17
2C
39
2C
45
2E
2A
01
EF
01
FF
F1
EC
08
0F
34
45
3E
35
12
05
14
02
2B
29
FB
F0
16
18
35
36
2D
6B
7F
56
FD
07
FE
FE
F4
DA
20
19
52
38
40
29
25
19
F3
F3
2B
17
05
02
F4
05
25
1F
37
4E
32
45
04
F4
E3
02
F2
F2
23
2B
3A
41
37
1D
18
25
E2
FB
1E
F9
EE
DC
E3
E2
02
F4
17
23
20
26
E2
D1
02
03
04
ED
FA
1F
17
0C
1C
23
1C
01
CC
ED
F3
DD
E3
D6
FC
F0
01
F4
ED
06
FA
EB
E2
D6
EE
FE
00
EB
C7
E6
FA
10
0A
35
02
03
DF
E2
D2
CB
DD
FE
17
03
F5
E2
DA
F5
FA
EB
A7
D6
E3
FF
02
EB
DC
D6
08
0B
1E
21
13
F6
E9
EE
D2
C8
ED
14
20
15
16
FF
0E
11
FB
E9
D0
D7
FD
FF
00
F3
EB
D3
FB
1A
25
28
0D
0B
F1
EE
DE
D1
FD
07
0F
18
25
24
18
14
F8
E0
C1
F6
ED
FE
02
01
0E
EF
25
3A
20
08
0E
12
E4
D7
DE
DC
EA
F8
02
28
26
17
1B
10
15
EC
C9
E3
FC
00
0C
04
FC
FC
21
26
13
1C
1B
07
E6
ED
E3
E6
F3
02
01
17
29
2F
2E
1F
E4
EE
EA
EB
01
FF
01
FC
E3
E9
FC
16
0D
0C
1D
FC
01
08
06
FC
FA
0C
01
15
1F
36
26
09
D5
FD
DE
00
00
02
02
F4
DB
E2
D0
F4
FE
0F
03
13
2C
34
2A
0A
20
1B
FA
F7
F2
FA
01
F4
F6
01
0A
FC
FE
FF
01
03
16
EA
DE
E6
02
14
0B
16
29
2C
31
3D
25
0C
0B
F3
02
06
03
06
16
03
F9
EC
00
02
00
04
22
15
FF
03
09
16
29
33
2B
29
25
36
3B
34
21
17
1A
0C
13
25
18
04
DE
FF
02
FF
FD
01
13
13
1F
21
39
23
28
3A
5C
42
4E
49
43
4C
28
05
30
43
12
19
24
1B
02
FF
FF
02
02
00
02
22
0C
07
2A
18
1C
2C
24
42
27
20
0D
2A
1E
27
0E
16
1D
E5
09
02
02
FF
FE
01
02
02
02
FF
F3
F7
03
FD
FA
ED
05
0F
D1
13
FA
EC
E2
FE
0B
F8
1A
FB
01
FF
01
FE
FE

// Row 11 (weights pointing to neuron 11)
04
FD
FE
01
FD
02
FC
04
FE
04
FF
FC
02
FE
05
04
00
FF
FF
FF
01
00
FE
04
FE
03
03
FD
FD
02
01
FF
01
00
FE
03
05
03
00
F6
F6
FF
F6
E5
4A
FF
FB
FF
FC
01
FE
03
FD
FF
03
01
FE
04
FC
01
02
00
FF
00
03
30
30
F9
09
0B
F2
01
35
27
34
EE
F7
12
19
2A
11
17
04
01
03
FD
00
03
FE
F7
17
13
2F
E6
0D
25
0F
F8
08
2A
06
E2
D5
F9
E2
01
16
F9
F3
F5
01
FF
01
01
FE
03
CE
D6
1B
23
22
1E
2C
17
1E
03
0A
E9
EF
E3
F1
DD
E8
00
EA
D2
F6
F4
1C
FD
FF
01
00
01
FE
07
32
16
11
0A
13
18
20
01
22
11
16
F3
F2
E6
DE
F2
DA
F1
01
C8
FA
FF
04
FE
E5
E4
23
1E
FD
0E
F3
F1
F5
00
FF
F1
0E
03
EE
F0
F4
E8
E9
D1
D8
00
EF
BD
DC
06
02
FC
20
F2
1B
F7
FB
FE
FA
F5
F1
FA
FD
FC
11
07
F0
F0
EB
08
F9
F5
B7
DE
C1
B9
E4
0F
FF
DF
E2
EE
11
F9
07
02
EA
EC
E6
F8
02
11
07
06
E7
D9
D8
F5
EF
F0
DF
DC
CB
B6
A7
FB
01
F6
D6
0B
09
00
03
09
EF
F9
EF
E5
FC
08
10
08
E3
F5
F6
FF
F8
0E
EC
FE
C4
96
E9
FF
FF
FC
F4
BE
D6
0A
20
03
13
FF
EA
E9
F4
DE
E0
C5
CE
DA
07
02
EF
FC
F1
E4
D2
80
B6
EB
FD
FA
DE
0E
0F
0F
1D
F5
F5
EF
F7
D5
DC
B1
B0
A6
D5
E6
F7
0B
EF
16
02
23
23
E4
CD
01
FD
FB
EE
14
2C
22
16
08
18
FE
E4
D5
CA
C6
BE
CB
B1
EF
06
1C
27
2D
14
22
29
34
DB
FD
02
F0
E0
25
1E
10
1D
21
0C
0C
0A
00
D3
D2
CB
C0
DD
E9
FC
1D
24
2C
05
F3
FD
46
14
35
04
EA
EB
05
2D
2B
1E
1B
32
2B
0F
2D
E0
F1
D3
E4
13
0B
25
3E
1B
20
FD
E7
E7
34
44
02
FD
EE
E5
1E
FB
1D
2C
32
37
24
12
F3
F2
F9
07
16
2B
38
2C
43
05
F5
F8
D5
DC
1F
44
18
01
04
EA
09
17
2B
3E
36
39
2A
35
06
0F
1B
2D
19
35
2C
35
23
20
01
13
F2
07
3D
3F
21
FE
03
18
C6
14
1C
38
26
22
11
18
03
21
3F
3C
24
32
1D
48
1B
28
F6
12
02
18
42
42
04
04
02
F4
CD
10
27
16
1D
17
04
F5
02
31
3C
25
19
20
15
24
25
17
06
05
0C
03
2E
08
20
FC
FE
1A
D7
FE
08
23
02
E1
D7
ED
06
0D
39
1B
2E
09
19
0C
01
FD
0E
01
02
FD
25
29
08
01
E5
16
E4
1F
17
09
16
F8
E8
E6
12
10
14
0C
16
1A
FC
18
F7
F9
22
04
1A
23
4C
11
FE
FF
01
FD
FD
1E
11
F8
0C
01
01
F6
F5
EC
FB
0A
1C
0C
0E
12
06
18
0D
20
51
1D
20
05
03
FF
FE
13
F6
2C
E7
04
1C
05
07
FF
F4
EB
E6
EE
04
D8
F0
17
0D
19
14
2D
3F
1B
0B
04
00
02
02
FA
03
F9
26
0D
FD
28
F2
FB
E8
E3
F1
D9
E5
CF
E7
F9
11
37
35
47
1D
00
2C
F7
00
FC
03
FA
BD
EC
F8
C8
BF
E3
CF
E8
E3
E0
D9
DD
DC
F6
E3
DE
FF
F0
F4
23
FC
0B
36
03
FE
FF
03
FD
FA
10
ED
15
EF
E6
B4
C1
D3
FF
01
E4
DB
FB
09
D6
EC
05
FD
FB
ED
F5
02
02
01
02
FC
FF
01
06
0C
23
39
07
F1
19
24
3B
35
2A
0E
0C
00
00
04
16
06
C7
F3
FE
01
FD
02
01
FC
02
01
03
FC
FC
E2
D6
D2
E9
0B
08
D1
16
F0
10
C8
C2
13
FB
2C
EA
01
FD
04
03
02

// Row 12 (weights pointing to neuron 12)
01
FD
FF
FF
00
03
01
03
00
FD
04
FC
01
05
04
03
04
02
03
01
04
01
02
FC
01
FC
FF
00
FD
FE
FF
FD
02
FE
FD
FD
F9
03
00
F1
EC
FF
11
05
C9
01
04
03
04
FD
04
FE
03
FD
00
FF
00
01
02
01
FC
02
03
F8
F8
FB
DF
34
EE
23
3E
23
FF
34
33
1B
16
18
04
D7
EE
E7
FD
03
00
FE
FD
FD
FC
D7
E5
C6
CD
12
D8
BF
DB
F5
04
FC
DE
0D
08
08
C9
01
44
2C
19
E3
03
01
FE
FE
E8
FE
CF
CC
15
E5
DC
FA
00
ED
07
FB
0D
0C
1A
20
1F
0F
F9
15
F4
26
1D
19
29
02
FF
01
00
D4
C1
C4
C6
E5
04
D9
0E
FE
09
0D
15
00
01
EE
F1
0E
1C
13
17
04
17
43
43
00
00
FD
EB
B6
80
B0
B5
F6
ED
E8
CF
F2
FF
03
04
12
08
EE
FE
0B
0E
0B
13
21
40
4E
41
15
FC
EF
D4
A2
92
AF
B4
D3
F1
E1
EE
E7
F7
06
10
12
F5
EB
F3
FB
0A
14
F8
33
43
3E
57
01
FB
E5
C7
D1
97
DD
E4
DF
EB
EF
E9
F4
08
1F
08
F7
F6
EC
F0
EF
E6
17
00
2C
5C
4D
6B
39
FB
E3
CE
AF
B7
D3
F4
EF
FD
08
11
2C
1A
1D
F7
E5
E5
D9
D7
E3
F5
FF
0F
43
32
69
2A
FE
F9
E7
BC
97
C8
D1
FD
FC
24
2B
36
44
3D
32
23
D9
BA
C1
E3
CC
E8
E7
F6
10
1C
5F
4D
1A
FE
CE
AB
93
F2
06
2C
39
48
42
43
39
1F
33
2E
FC
F2
F0
F0
E0
D6
E5
F0
03
2D
39
56
02
FA
D7
B7
C1
F1
1F
4A
46
23
1C
20
1B
26
46
45
1D
07
0C
04
07
21
01
1A
0F
EA
10
3C
FC
FF
E2
BF
F5
C7
19
05
0D
12
08
FC
1B
38
3C
3E
46
1F
14
30
0A
20
38
FF
C9
B8
FA
3B
34
FE
DE
DF
F4
F1
FD
06
EE
FD
03
04
1D
21
48
3D
22
23
07
F9
F1
D8
DF
D9
AB
D2
C8
17
FD
FD
F7
DD
D9
C0
D9
C7
E6
EB
01
FC
0B
27
32
3C
19
0B
F2
E1
E0
BE
C3
CF
BC
B5
1A
0F
F7
04
FD
DA
CF
FE
D8
E4
F1
0E
03
0E
22
1C
15
32
02
FE
E9
BF
B9
C3
B4
CA
0C
09
D9
CC
DA
03
FE
E0
DA
07
D0
E7
12
0D
1C
1B
2E
38
1D
20
FA
F6
EE
D0
CC
D2
E0
E1
FE
1F
80
E2
00
02
FC
DE
E5
E0
E8
11
05
11
17
1B
30
25
23
01
FE
EC
E4
D5
E1
F7
FA
29
06
14
B9
0B
12
FC
FE
12
E2
AF
FB
F9
04
F8
07
FB
03
FE
09
F8
FE
06
F5
F5
FB
0A
07
2C
0E
C7
C8
09
09
01
E4
F0
C1
C0
0A
F2
10
03
F6
EC
EC
F7
0B
FC
FB
10
07
10
10
10
25
38
02
E8
F4
E5
FF
01
FC
CE
F6
D6
0B
FF
FF
FE
06
FD
EE
FC
0B
19
14
0B
0B
12
0E
2B
44
30
F2
E3
DF
F7
01
FF
02
CD
AE
D9
F2
F0
EC
FB
E0
FE
FA
06
1B
23
0C
07
17
2A
07
04
02
E7
D7
21
1E
FD
04
02
FF
FE
B9
DC
D3
FC
CF
F5
FD
E8
FF
19
11
00
FE
25
1A
09
2A
24
F8
E7
17
DD
E2
03
00
FC
03
FD
B9
C7
B5
CF
D4
E7
18
EA
F9
0F
F5
19
15
0E
03
30
32
ED
06
27
2D
DC
D2
00
FE
FC
02
03
10
DB
AB
D8
E4
E3
E6
FC
EF
E9
F1
04
F4
0C
31
04
0C
3D
1A
29
2D
35
02
01
FF
FF
01
03
03
27
F0
01
18
F8
2A
24
0A
1C
0E
06
F8
0C
3B
2C
EF
06
10
EF
0E
00
01
00
03
02
04
00
FF
FF
EC
ED
FD
EA
E2
D1
F7
F9
9F
0D
07
CA
B3
05
10
E8
19
05
03
00
03
FE
03

// Row 13 (weights pointing to neuron 13)
FF
FF
FF
03
FD
03
00
01
FF
01
FD
01
01
03
00
FD
FE
01
01
FE
FE
FD
FD
03
01
02
FF
01
03
FF
01
FD
FF
FE
FF
FF
04
04
FC
25
23
01
F3
05
22
06
FF
FE
02
00
FF
FD
02
FE
FD
FF
FD
00
FF
03
01
02
02
04
04
28
28
FB
08
F4
F2
FE
3A
23
1C
EC
F1
E5
E0
1D
0E
13
01
02
03
02
00
FC
00
1D
0D
FA
1B
EC
11
32
0E
2A
21
20
2D
04
F5
FA
EE
CB
F1
D8
E9
EE
FF
00
FF
00
14
FD
DB
E3
FB
04
11
08
1E
02
16
1A
28
17
1A
0A
15
FD
FA
D3
BF
86
B6
0D
26
00
03
03
FE
0C
2D
1A
1F
0B
12
07
01
0E
14
20
2E
20
15
1E
08
0A
E7
FB
EB
B5
D6
EF
18
FE
FF
03
F6
07
0E
09
03
01
FF
03
08
05
15
20
2A
24
2E
20
25
FB
0A
FB
01
D9
B1
D8
D7
FB
03
FC
19
E7
1B
F2
07
F8
F7
F4
F7
FE
06
0F
3A
2A
34
1C
14
17
0F
15
F7
E0
D6
BA
E9
08
01
E9
02
0C
0B
F2
F9
05
FA
FD
0E
F5
19
2A
3A
2A
22
08
13
23
14
0F
09
08
BD
A7
C8
F2
01
02
E7
25
19
0A
FD
05
F6
FA
F7
F4
05
21
3D
2A
0A
23
15
2A
29
0F
12
1A
D2
9F
E5
FE
00
F3
0E
01
E7
04
FC
F6
FC
F3
E6
F2
0D
0E
17
08
0B
14
25
2A
27
29
09
18
EC
80
B6
FD
01
FD
12
27
EE
F3
EF
EA
E2
D7
D4
E8
E9
F9
15
F3
E8
02
16
1F
2F
28
2A
3C
0C
C2
B8
00
04
F0
11
ED
DD
F5
E1
D4
E2
E3
D0
DD
F5
03
0E
02
F4
07
0B
19
18
1C
32
5B
6C
31
F3
FE
00
ED
05
E3
E1
C4
CD
DA
C7
E7
EA
E5
E7
24
20
FF
00
F1
ED
F5
F1
07
0C
44
3C
38
13
26
03
02
EE
D3
DA
D2
EB
EC
DF
DB
E4
EB
FB
23
07
02
EF
E4
FC
FE
F6
F5
F4
0A
0C
3B
3D
FE
FE
F2
DD
FC
F1
18
20
19
FA
E7
F6
E9
EB
22
06
00
F0
F4
E4
F4
E9
FA
F9
FA
25
23
44
16
FF
02
0F
18
18
0E
25
2B
15
21
1D
FA
05
0E
0F
EF
05
01
F6
EB
07
0D
11
0E
16
70
43
29
FD
02
0E
13
18
10
15
18
23
12
12
17
0B
13
F4
FF
22
FF
F7
08
FD
FB
2D
1F
29
6E
3A
02
03
FF
F8
EB
0C
1F
14
1B
18
18
28
1B
19
16
02
06
09
0E
16
12
08
FF
19
34
27
60
02
19
03
FE
ED
EC
07
F8
2A
1D
1C
1A
2E
0C
11
06
08
0B
08
0D
0C
07
13
23
27
16
21
4A
29
05
FF
EE
09
F8
18
14
27
31
29
29
21
14
0A
14
18
12
0D
F3
05
0E
1F
1B
04
11
20
66
0E
FD
03
FF
00
F8
F9
03
0C
23
1E
2F
23
24
0D
16
05
09
08
FF
15
18
0B
FA
0E
43
1D
4E
00
00
FE
03
1D
0D
07
E7
0B
1F
14
29
17
29
1C
16
05
10
FC
F6
08
0A
20
14
22
26
18
04
03
02
FE
02
12
32
04
FF
08
16
24
10
14
12
18
1B
0C
03
07
F2
03
19
1C
1D
34
07
2A
1F
DE
FF
02
00
06
FD
FB
E4
EE
0F
FF
09
0D
18
09
02
16
F7
20
01
EE
F6
F2
F4
09
FF
1A
30
00
01
01
FD
00
E1
EA
FD
1B
FA
0D
F7
01
01
EA
FD
F0
F3
FD
F9
2B
21
27
23
07
FB
1D
01
FF
FD
FD
00
00
FD
2D
15
0D
1D
34
17
38
2C
23
42
62
42
4F
47
76
2F
37
1C
F3
0D
03
00
01
00
00
FF
04
FD
03
04
05
2E
30
37
28
23
37
06
21
E2
17
E4
21
28
11
22
DF
01
01
FE
FD
FF

// Row 14 (weights pointing to neuron 14)
FE
01
04
03
FB
02
FB
FB
01
FE
01
FD
01
03
00
02
05
FE
02
FF
FD
01
03
04
01
01
04
FF
00
05
FC
03
01
FB
01
FF
FA
FE
02
09
03
04
15
1F
02
04
03
00
FD
03
04
03
00
04
01
05
FD
04
FC
FF
FB
05
FD
FE
01
FA
E6
21
F8
02
33
2C
E9
DE
CC
F9
F2
D0
D5
FF
01
00
FC
FC
FE
00
04
00
01
34
0E
3B
DA
27
1E
F0
00
01
FA
F9
3C
16
26
11
33
F6
D6
E7
DC
05
FF
FF
01
05
1A
04
3B
4A
0E
0E
1D
00
0C
30
04
0C
0C
1A
1B
F2
05
03
0A
FE
2B
0F
E7
29
EA
FB
FB
FF
FE
10
34
3E
F8
FD
E9
00
FC
FC
12
05
DC
10
06
EF
F5
FC
EC
08
18
08
0E
FD
F0
FD
05
02
24
21
2A
34
22
D4
0B
F6
0E
1B
05
19
1E
21
19
02
0D
F4
FE
DF
D0
04
E6
8F
EA
00
03
16
F4
12
34
4A
0F
10
FE
11
16
1D
29
21
41
0E
0B
13
15
04
FF
DF
DC
F8
A8
C9
F3
F4
05
17
31
41
2F
FF
0D
14
1D
09
1C
2F
1D
14
17
05
04
27
13
17
0E
0C
FE
AC
89
CC
19
28
00
1D
35
1C
2A
0D
19
28
10
2C
23
03
F2
EC
0F
21
FD
02
17
03
04
FC
03
B7
D7
FF
C5
04
FE
17
32
63
29
02
31
28
FA
F3
EE
D8
CF
F5
30
1E
26
1F
FB
FB
FE
0E
1E
0F
FD
71
06
0E
00
29
54
39
26
02
0F
FE
05
E5
F4
FC
F7
15
1A
1A
0C
23
20
29
29
12
1C
05
FB
18
37
02
02
2F
48
EB
D6
0A
D8
06
D8
0B
0E
D6
E3
ED
13
14
11
20
2E
3C
23
0D
C0
80
9B
34
E5
FB
FD
05
4F
CE
08
FC
0B
05
1C
19
DC
D2
F4
F6
13
EF
05
24
37
12
ED
E0
EF
E0
CA
BA
F3
FD
FF
1B
0C
06
C8
D2
C3
D8
0D
FD
D7
DB
02
ED
05
FF
E9
13
26
F3
F7
1C
1B
3C
E7
EE
ED
02
01
0F
16
BC
02
BB
E8
CA
F2
03
09
25
11
0D
F9
ED
F9
05
01
D5
14
1F
1F
45
1C
DF
16
09
03
FF
30
39
DD
B6
A5
C9
B2
0C
FD
1B
08
22
EE
E3
00
EC
1B
10
04
19
34
11
17
BD
1A
F9
05
06
12
57
D5
BB
B3
DB
B7
A9
B7
E7
F8
FA
DF
08
F2
E8
03
1D
15
31
0C
0F
DB
C3
18
FC
03
00
15
59
E5
E3
E0
B1
AC
AE
8C
A8
AC
C7
E4
E5
F9
0C
24
25
0D
15
02
FD
CC
FC
0B
FF
FE
FE
01
3E
20
08
DC
E2
E8
CB
B0
C4
C0
CB
F4
FD
FC
2A
13
11
08
26
FC
DF
E1
1C
0E
FE
01
01
26
42
0F
01
25
14
EF
F1
ED
F0
DC
DE
04
FF
F8
27
1D
16
1A
DD
E6
D5
F5
DA
15
00
04
05
0B
FC
29
34
1E
2C
24
FD
20
FC
02
09
0F
FD
1C
15
1A
21
E6
D1
E4
CB
D8
DC
FE
FB
02
01
0C
3C
28
4C
1D
1D
0C
29
11
13
03
F9
24
F3
24
37
09
26
0C
F5
EF
EE
FF
C2
0B
FC
05
FD
18
40
57
29
0F
1A
14
0C
F8
FF
01
F6
0F
10
0B
23
15
FF
E8
BE
06
F4
33
D9
30
05
FE
01
10
35
2F
1F
30
49
16
16
16
30
1E
43
0A
01
F7
14
F2
FA
14
07
EF
0B
08
EE
00
FF
00
03
02
D8
18
40
52
27
60
7C
5C
43
57
49
49
2F
3E
1C
42
2A
42
F4
04
15
1E
05
02
FD
05
FE
04
FE
FC
F5
1A
F1
32
34
41
35
0C
5A
4D
43
5C
47
3A
44
2C
07
2C
14
00
FB
FE
04
03
04
02
FD
03
0D
0C
4A
5B
21
59
33
48
6B
3F
06
3B
45
21
04
1D
CA
D5
FD
00
04
FB
05

// Row 15 (weights pointing to neuron 15)
FC
FC
03
04
FF
FC
FE
04
04
03
FE
FD
04
00
FE
04
04
FC
04
00
04
FC
02
FC
FD
FC
04
03
05
02
FE
FE
FE
FE
04
FB
01
03
FF
0B
0D
FF
14
2F
25
02
FF
00
05
03
01
FC
03
03
02
02
FD
01
02
FC
FB
FD
FE
08
FD
35
2E
4F
ED
FF
4E
41
39
53
21
F7
F2
D9
D5
28
18
16
FE
FD
00
02
03
02
FC
30
1C
36
0A
14
1C
0F
F9
2B
12
24
4D
19
0A
12
28
F6
F0
D0
BE
E8
FF
FE
02
FD
19
FE
E6
0C
28
0B
24
11
36
22
25
23
34
37
44
09
27
F8
F8
D3
D1
CF
B2
16
20
FF
FC
FD
FD
1D
43
33
FB
FD
F5
F0
04
15
30
2B
0E
31
18
0A
F3
16
F1
11
11
CA
05
13
37
03
01
FF
08
1D
08
16
F6
D2
F7
F9
EC
13
0C
39
3F
3B
4E
24
53
02
1A
F7
DF
DA
CB
F4
0D
12
00
20
1F
F3
18
12
E9
E4
E9
F0
07
02
24
20
63
36
3B
26
2E
29
26
1D
E4
F3
DC
C8
3E
F3
01
EF
0E
2C
08
D2
F0
EB
F3
EA
04
F5
1F
29
41
31
22
29
12
21
0F
2C
13
F6
CD
E5
33
32
05
FB
E7
29
1C
F6
07
0A
EE
07
03
02
F6
03
2E
31
FC
05
0E
10
15
F7
09
24
EA
13
1A
FB
00
FB
DA
1F
EE
D5
09
FB
F9
E9
EA
E8
E3
00
3D
12
12
FB
03
ED
06
18
13
26
1F
13
13
13
04
0D
12
24
00
ED
04
F3
03
E0
E2
E0
C9
0F
4A
3C
01
15
18
16
21
13
13
10
29
17
18
FB
00
0A
1F
FB
C8
02
E6
F1
D9
DC
E4
B7
D2
1E
6D
42
06
0F
1D
2C
3B
14
F8
E4
F3
41
10
04
FC
E0
DC
E3
E5
E5
D9
DF
F0
EE
CB
C3
0F
55
69
2A
19
08
30
08
FD
FC
B9
B8
C2
2D
1D
13
FD
F1
EB
DF
CE
D2
DA
CE
F3
E4
D6
E0
1A
49
49
2D
04
FC
10
E9
E1
D7
AF
B0
BB
24
39
FC
FB
01
E4
E2
F6
01
EB
DB
DB
DD
DE
03
11
50
32
0F
01
F3
E5
C7
D6
B8
B3
B5
D9
01
43
24
02
04
32
47
21
0C
FB
F2
BF
F6
E8
0D
10
33
15
DE
F9
E0
E1
BF
D3
C4
D8
FB
01
39
47
2D
FC
04
1A
5D
34
04
F5
04
F1
D9
D9
0F
11
12
EB
EE
04
DF
D0
EB
DD
E9
0D
1A
2A
38
48
FC
00
06
FD
2E
2F
21
1E
E5
F5
0B
F3
05
FF
0C
F1
EF
F3
0A
15
12
FB
01
32
3C
2C
4E
16
23
03
06
FF
1D
06
00
FF
1D
1B
1F
13
0C
02
FB
F7
03
15
21
12
13
1A
3B
38
14
F4
41
3A
03
04
DF
13
23
1A
0E
34
39
20
22
05
07
EF
FE
14
06
09
10
1A
24
39
1F
09
F3
0D
59
27
05
04
FD
EE
F4
09
29
1C
33
2F
1D
2C
11
02
13
14
07
10
FC
1A
29
0F
02
07
28
03
4E
02
01
FF
FC
1F
2F
11
3F
2A
25
06
1A
21
20
14
05
24
00
0D
23
20
1E
2E
FF
0A
11
22
E5
09
04
03
03
22
0E
3C
22
23
13
33
1D
FD
03
16
FE
09
10
15
1D
14
30
26
F6
31
19
42
F3
24
00
04
04
10
E3
01
E6
07
3F
10
27
FD
26
14
12
1F
14
07
18
17
11
0C
13
21
25
26
34
00
04
01
04
03
DC
F8
1C
45
17
4A
57
32
23
22
23
25
0D
30
1D
38
37
75
37
24
1A
34
05
04
05
FD
03
03
02
32
06
19
2C
37
6B
7B
52
3A
7F
75
43
6C
7C
73
2F
3B
35
26
13
FC
FF
00
FE
FC
02
02
FE
04
FC
05
FB
FB
1B
27
38
51
CE
49
08
FB
E0
18
32
F1
23
12
FD
04
04
FB
00

