// Row 0 (weights pointing to neuron 0)
F7
FD
00
03
06
FA
FD
00
FD
06
06
09
FA
FA
00
03
03
00
FD
FA
03
06
03
FD
06
06
06
03
FD
00
09
06
F7
06
FA
FD
06
F7
F7
A9
A0
FA
00
CE
C0
F4
FA
F7
FA
FA
06
FD
FD
00
FD
06
FA
06
00
09
FA
FA
06
E9
F4
A6
A0
BD
E9
09
09
D1
DA
E9
D4
29
17
46
54
B4
DD
CE
FD
00
FD
00
FD
FD
06
AC
C6
CE
C3
F1
89
80
A6
BD
E3
D7
94
1A
03
DA
94
0F
6C
7F
7A
EC
09
06
03
06
D4
FA
F7
CE
DD
CE
94
D7
C6
C6
D7
E6
E0
E9
DD
23
06
34
EF
54
37
7A
7F
2F
A6
FA
03
00
06
AE
80
80
AC
C3
FA
E0
14
06
E0
0C
14
E0
F4
03
1D
06
46
2C
17
37
F4
7F
F4
06
FD
06
37
C0
CE
A6
D4
1D
EC
11
11
20
3D
23
1A
2C
23
26
EC
52
11
2F
32
4C
7F
7F
7F
1D
09
DA
DA
D4
80
A6
E9
FA
29
37
46
46
32
46
F7
4F
09
0C
0C
0F
09
09
20
5D
7F
7F
7A
F1
FA
23
FD
A6
91
2F
F7
F7
20
34
2C
3D
32
29
11
E0
E6
EF
06
E6
E3
0F
FA
6C
7F
7F
7F
3A
FA
FA
32
D7
9D
F4
2F
F4
60
3A
72
7F
77
57
C0
8E
DA
E0
E6
F7
0F
2C
40
69
7F
7F
66
03
F7
11
D4
B7
26
17
40
69
7F
7F
7F
7F
7F
7A
E3
97
80
C6
1A
20
43
2F
49
5D
7F
7F
7F
2F
FA
B4
C6
80
40
6F
7F
7F
7F
7F
7F
66
54
54
2C
BD
EC
F7
00
FD
0C
54
7A
5D
72
60
7F
FA
FA
F7
DA
7D
7F
7F
7F
7F
7F
72
40
5A
14
29
00
DA
E0
F4
0C
0C
5D
7F
7F
7F
11
C3
40
00
06
17
1D
7F
32
7F
7F
7F
69
29
26
1A
00
F4
DD
14
FD
EF
03
43
7F
7F
7F
40
3A
B4
F1
9A
FA
E3
1A
66
5A
6C
7F
60
0F
14
46
0C
E9
06
F7
E0
09
06
D1
32
37
14
49
20
2F
9D
83
00
FD
E9
11
03
EF
FA
B7
17
0F
34
26
EC
F7
CE
F7
EF
E9
0F
37
49
0C
06
03
03
C9
AC
80
C3
06
00
B7
80
C0
C6
C3
C0
7D
1A
0C
11
EF
A6
F1
2C
09
1A
03
06
FA
F1
C6
F1
B4
80
80
A0
03
03
B4
80
94
C6
D4
F4
37
7F
7F
4F
2F
03
20
06
FD
29
14
03
17
F7
C0
AE
C0
80
80
00
03
09
91
80
8E
8E
D1
11
43
4C
77
3A
20
29
03
09
F1
E9
E3
FA
0F
FA
E6
8B
B1
80
C6
C0
09
03
03
91
91
E6
E9
EF
F4
0F
FD
DD
FA
F4
F4
D4
DA
CC
F1
0F
09
A3
E9
F7
9A
80
8E
F7
FA
2F
C0
80
8B
F7
C0
E0
F7
E0
E9
DA
26
20
E6
EC
00
E6
06
14
DD
00
2C
E6
A6
80
BA
06
03
00
C9
E6
A0
D1
06
E9
DD
06
03
20
40
23
2F
23
0F
FD
03
E9
1D
40
09
89
E0
9A
FA
03
06
FD
A6
80
AC
BA
E3
D4
09
E9
17
11
4C
54
2F
34
20
00
17
E0
B7
E3
BD
BD
F4
11
F1
00
FD
F7
C9
80
89
AC
E0
AE
E6
00
1D
3A
3D
60
52
34
37
1A
F4
11
17
F4
8E
14
91
C0
C3
03
FD
03
D7
EC
C0
F1
B4
8B
09
09
20
F7
37
F7
2C
49
1A
17
5D
72
1D
17
1D
2F
B1
9A
03
06
09
F7
09
43
E9
AE
80
00
A0
AE
EF
23
09
2C
52
75
7A
7F
17
7F
6F
14
1A
34
DA
03
06
09
03
09
03
FA
A3
B1
20
29
E6
0C
4C
49
7D
CE
E3
E6
1D
C0
9D
80
D7
FA
1A
E6
03
06
FD
FA
06
FA
06
FA
09
E6
F4
89
80
86
8B
80
80
B1
D1
66
A0
23
9D
C3
CE
BA
57
06
03
06
00
FA

// Row 1 (weights pointing to neuron 1)
07
00
FB
02
07
00
07
05
FE
FB
05
00
02
FE
F9
FC
FE
05
02
04
00
FB
07
FC
F9
F9
05
04
05
00
04
02
FB
FB
02
FC
F9
04
00
B8
BA
04
04
31
AF
F9
02
F7
05
04
04
07
FB
F9
04
07
05
04
FB
04
F9
00
F9
F7
F9
E9
D1
FB
AF
F7
1D
16
34
26
12
DA
F3
EA
F5
C1
FC
00
00
F9
05
FB
07
FB
FE
48
CA
34
B1
FB
9F
98
80
17
C8
A4
AF
96
8F
84
84
B3
07
BA
B1
CA
05
04
F9
00
24
04
1B
00
9D
96
9F
CF
D5
AB
C8
DA
F3
10
28
1F
F7
DE
B6
F0
EA
EA
CC
00
3B
00
FE
FC
07
1F
53
F7
E0
DA
10
D5
C3
E3
07
0B
E3
0E
D3
E9
DC
F5
B3
F2
F9
A4
19
1F
32
FC
05
FC
D3
46
F3
14
1B
14
0B
26
2F
3A
3B
55
63
67
70
7F
61
4C
28
10
F7
AD
80
F7
BD
FC
04
F2
16
00
EC
0B
34
F2
F3
1F
38
48
70
63
65
7E
70
7A
56
65
3B
32
F9
F0
F0
94
E3
DE
05
2F
04
CC
0D
4D
02
0E
2B
2B
4A
26
46
3B
7A
3D
32
29
3B
48
20
2F
10
28
DC
92
A1
F9
07
28
55
68
DE
1D
3F
F5
29
22
5F
4F
41
2B
46
1D
22
36
20
48
4C
D1
0B
E3
E0
AD
D8
F7
0B
2B
12
2D
EE
07
0D
4F
58
22
34
1F
26
1D
22
E7
F9
26
53
44
5C
36
24
1D
CA
80
80
B8
FE
53
73
32
32
19
3F
7A
3D
3D
3D
3A
D3
20
67
41
20
6C
4F
41
5F
73
7F
73
F5
D7
87
FB
FE
55
79
2F
05
4C
4F
4D
34
26
E9
C1
82
D5
48
19
04
41
5C
58
4A
7F
7F
7F
7F
E9
34
02
F9
12
6C
24
34
58
17
24
28
22
EC
9D
94
14
32
28
43
22
36
4C
20
5A
7E
73
65
BA
F2
AB
04
3A
1D
58
0B
14
1D
10
F9
DC
F5
B8
CA
0E
12
20
20
14
07
22
32
24
24
36
CC
EE
B6
07
05
E7
04
04
41
1F
36
1F
E5
E5
DE
CC
C1
F9
E0
EE
07
17
5C
04
02
46
3D
02
E5
80
AA
D7
FB
05
D1
DE
F7
E9
DC
04
1F
19
E0
E3
E0
E5
C8
F3
1F
07
1D
F3
C5
E5
07
F0
A2
8D
BC
BA
07
FB
AF
E9
C6
B1
A1
F7
20
05
DE
0B
EE
00
EC
04
05
F7
DE
05
D8
EE
F5
B3
90
80
B8
F9
02
FB
B4
AF
9F
86
A2
C6
FC
24
14
FE
D5
05
DE
C6
C3
E3
05
09
D5
CF
E7
90
80
AB
EC
DE
04
FE
9F
DE
8F
AB
E0
E1
E7
E7
0D
D3
E3
B3
C5
B1
BD
D7
CC
E5
E0
BF
1B
24
80
00
C1
00
05
D5
CC
CE
80
C3
28
19
EC
12
D7
B4
DE
C5
CA
C3
EC
E5
C8
12
D3
F7
C8
AA
B1
1D
CA
05
04
F7
F0
80
80
B8
17
E9
F3
12
12
FB
E3
E9
D3
D7
09
D8
EC
D1
E5
E5
A4
80
44
38
FB
07
FC
00
94
84
9D
E5
1F
1D
1B
0D
1D
07
12
F2
09
0D
28
07
DE
BC
82
B3
CA
FC
58
29
02
FE
FB
05
E1
80
E1
C8
44
63
5F
04
09
0D
07
26
24
05
0B
00
DC
C8
BC
F0
1B
58
3B
C5
DE
FE
FB
04
E3
0D
0D
44
48
53
58
05
26
0E
16
F9
F0
0E
D8
07
0B
07
2D
6A
43
4D
3F
AA
F9
07
FB
04
05
E0
EE
7F
0D
67
68
5C
17
38
17
26
31
4A
71
48
48
7F
7F
7F
56
56
29
05
FC
04
04
FB
FC
FE
29
5F
55
7F
7F
38
7C
77
5C
73
7F
65
7F
7F
7F
4C
75
4A
7A
14
FC
FB
05
00
FE
FC
07
02
F9
16
0B
70
77
16
7C
16
46
7F
7C
1B
53
67
34
F9
2B
C8
48
02
04
04
05
04

// Row 2 (weights pointing to neuron 2)
23
DD
00
DD
98
BB
BB
98
68
23
DD
00
68
23
23
45
45
98
00
BB
98
DD
BB
23
98
68
00
00
BB
DD
00
00
BB
23
DD
DD
00
DD
45
7F
7F
00
80
7F
7F
7F
DD
00
45
DD
23
00
23
68
45
BB
23
45
00
23
00
DD
00
7F
68
7F
7F
80
7F
80
80
80
7F
7F
7F
80
80
7F
7F
7F
7F
7F
BB
00
DD
23
23
00
DD
80
7F
80
7F
80
7F
7F
7F
7F
7F
7F
7F
7F
23
80
80
80
80
80
23
7F
00
68
23
98
7F
68
80
80
80
80
80
68
98
98
80
7F
7F
7F
DD
00
7F
80
00
80
80
80
80
7F
80
23
BB
98
00
80
80
80
80
80
80
DD
80
7F
80
7F
7F
7F
7F
7F
7F
45
80
7F
7F
80
80
80
80
DD
23
68
7F
80
80
80
80
80
80
7F
7F
7F
7F
7F
7F
23
7F
80
80
80
80
BB
7F
98
80
80
80
80
68
7F
7F
80
80
80
80
7F
7F
7F
7F
7F
7F
7F
7F
23
7F
80
80
68
7F
7F
7F
80
DD
80
80
7F
DD
7F
7F
7F
80
23
80
7F
7F
7F
7F
7F
7F
7F
7F
7F
7F
23
7F
7F
7F
7F
7F
7F
80
80
80
80
7F
7F
80
7F
7F
7F
80
7F
7F
7F
7F
7F
7F
7F
7F
7F
7F
7F
7F
7F
7F
7F
7F
7F
7F
80
80
68
7F
80
7F
7F
7F
7F
98
23
7F
7F
7F
7F
7F
7F
7F
7F
7F
7F
7F
7F
7F
7F
7F
7F
7F
80
80
7F
00
7F
7F
68
7F
7F
7F
80
80
23
80
80
7F
7F
7F
80
80
80
7F
7F
7F
7F
7F
7F
7F
80
80
23
68
7F
80
80
80
80
80
80
80
80
80
80
80
80
80
80
80
80
80
80
80
7F
7F
7F
7F
7F
80
45
DD
DD
7F
80
80
80
80
80
80
80
80
80
80
80
80
80
80
80
80
80
80
80
7F
7F
7F
7F
23
7F
DD
7F
45
80
80
80
80
80
80
80
7F
23
7F
80
80
80
80
80
80
80
80
80
7F
7F
7F
7F
7F
98
68
80
7F
80
80
7F
80
7F
00
80
7F
7F
80
80
80
80
80
80
80
23
68
7F
98
7F
7F
7F
7F
7F
45
BB
7F
7F
7F
80
7F
7F
00
7F
7F
80
80
80
7F
7F
80
7F
80
80
7F
7F
7F
7F
7F
7F
7F
7F
00
7F
7F
7F
7F
7F
7F
80
00
7F
7F
7F
68
7F
68
80
BB
7F
23
00
7F
80
7F
7F
7F
7F
7F
DD
98
BB
7F
80
7F
7F
7F
7F
7F
7F
7F
7F
7F
7F
7F
7F
7F
7F
7F
80
7F
68
7F
7F
7F
7F
BB
45
98
45
80
80
7F
7F
7F
7F
7F
7F
7F
7F
7F
7F
7F
7F
7F
7F
7F
7F
7F
80
7F
7F
7F
7F
7F
7F
23
7F
80
80
7F
7F
7F
7F
7F
7F
7F
7F
7F
7F
7F
7F
7F
80
7F
7F
7F
80
7F
7F
7F
7F
7F
45
DD
DD
7F
7F
7F
7F
7F
7F
7F
7F
7F
7F
7F
7F
7F
7F
7F
7F
7F
7F
80
80
7F
7F
7F
7F
45
BB
BB
68
7F
7F
7F
7F
7F
7F
7F
7F
7F
7F
7F
7F
7F
7F
00
80
7F
7F
7F
7F
7F
7F
80
80
45
00
45
BB
98
7F
80
7F
7F
7F
98
7F
7F
7F
7F
7F
7F
7F
7F
98
00
7F
7F
7F
80
80
80
7F
80
45
00
DD
7F
80
80
00
80
80
80
80
45
7F
7F
7F
7F
7F
7F
7F
7F
80
80
80
80
80
80
7F
68
23
98
98
98
7F
80
80
80
80
80
80
80
80
80
80
80
7F
80
80
7F
80
80
80
80
80
80
BB
00
DD
68
00
23
DD
80
80
80
80
80
80
80
7F
80
80
23
7F
7F
80
80
80
80
80
7F
80
BB
00
23
BB
BB
23
BB
98
98
7F
7F
7F
7F
7F
7F
7F
7F
7F
80
45
7F
7F
7F
80
7F
80
80
DD
BB
BB
BB
00

// Row 3 (weights pointing to neuron 3)
FD
FE
F9
00
FE
00
05
FB
00
07
F9
05
03
FD
02
FB
F9
F9
07
FD
FB
FD
03
FE
02
FB
02
05
F9
05
05
07
00
07
FD
05
FB
03
FE
15
1A
07
0C
1E
00
09
05
02
03
05
05
03
05
FB
FB
07
FD
02
05
F9
FB
00
FE
FE
FE
AD
F6
E6
13
1C
42
4B
ED
E2
55
2D
24
39
44
FB
F2
F7
02
00
F9
07
FD
FD
00
C5
21
E4
E4
3B
13
36
3D
2B
24
4E
57
7F
4C
50
5F
24
44
36
50
39
FD
00
FD
02
05
00
28
1F
1A
E8
F7
0E
ED
2F
F6
02
11
11
F4
F7
E6
3B
EB
4B
76
7F
21
4C
03
FD
02
02
00
09
B9
00
D1
FB
FD
10
24
03
F4
24
11
1A
02
DC
21
15
3E
17
34
3E
02
7F
09
07
FB
FE
CC
C2
CF
DD
FD
C5
CC
FD
09
F9
15
23
2B
36
34
F9
1F
49
42
23
18
59
7F
7F
49
03
FD
05
B2
15
91
E8
BE
DF
05
02
F9
15
2A
23
4B
4B
18
15
39
1A
55
21
0C
1C
71
7F
3E
0A
05
28
DA
F2
80
C2
C0
DA
E8
C0
ED
2B
40
3D
5E
34
07
E4
EF
EF
2F
10
FD
1F
5E
6C
5F
10
05
21
2B
B7
B7
94
E1
D5
E4
02
07
5A
7B
7F
39
D6
A9
80
9D
80
AD
B2
CC
DA
0C
65
E4
07
0A
1A
5C
52
47
ED
34
1E
DC
26
5C
5E
53
7F
1E
8D
80
80
80
80
80
80
80
80
A9
7F
7F
1F
05
ED
21
36
6F
57
4E
40
5A
45
42
2B
3B
40
F2
9D
B2
D6
EB
C2
96
80
80
80
80
18
61
FB
0A
0A
34
36
71
6A
50
47
0C
0E
2B
26
DC
CC
F9
D1
C0
F9
00
FB
09
B9
B7
80
80
DD
0E
FB
05
1A
6D
28
3B
4C
7F
3D
40
FD
11
F7
02
00
10
EB
B2
C5
02
0E
2B
98
FE
F9
DD
EF
ED
D8
02
21
13
68
24
17
3E
1E
13
F7
F7
A4
BE
A7
FB
E2
B4
D1
D1
EB
F2
D5
2D
6A
73
1E
B2
FD
F9
24
3B
26
D8
E1
D6
FB
21
09
EF
A1
BB
CA
E1
DC
C5
C8
F2
F6
1E
F9
1E
7F
7A
63
BE
00
03
07
2A
05
BB
DF
91
CA
C3
B9
C3
EF
C0
AD
DF
B0
BE
ED
E8
3B
2A
21
53
52
28
80
83
AD
FD
00
E6
49
D8
CE
BE
C5
91
91
A6
D5
BC
80
A6
DC
C5
09
2A
0E
2B
40
23
34
2B
A1
A6
FB
00
FE
39
6D
34
1E
02
F4
C8
85
A2
98
80
AD
EB
F4
D3
39
2F
2F
40
52
2A
1C
49
DD
DC
C8
03
FD
24
7F
68
63
09
26
21
DC
BE
8F
B9
DD
00
09
31
2D
32
2A
23
00
1A
26
4C
A7
C2
EF
FB
09
DF
10
17
1F
DD
F6
3D
0E
EB
F2
15
32
1C
3D
47
55
10
42
11
03
61
5E
39
80
09
03
00
F9
E4
0C
1F
1E
ED
15
34
13
2B
1A
44
40
5C
5A
47
2B
2A
0E
09
3E
45
E8
DF
A7
00
05
F9
FE
F9
B4
DA
1F
AB
E8
E1
EF
03
FD
31
18
50
36
52
2D
26
2F
2D
2A
FE
CC
B9
DC
11
00
FD
FD
03
49
F9
EF
E1
DC
DD
E2
1A
31
1C
00
2D
39
1C
3B
2F
15
2F
11
D1
A9
C0
DF
05
07
02
F9
1A
45
4B
FE
0A
18
17
3B
44
39
3E
2A
2A
0C
17
53
4C
47
3B
49
C2
D1
BC
E9
FD
FB
F9
05
05
3E
66
2B
D6
D8
C0
F0
39
F2
10
DA
2D
02
31
2D
F0
DA
9B
CA
A1
02
00
FB
FD
F9
00
F9
05
03
EF
B9
B7
86
D1
F7
A1
DC
03
05
CE
BE
21
CF
8D
4C
FD
13
F9
00
03
FD
05
02
FB
07
FB
05
FE
18
10
15
26
32
65
5F
78
73
E8
E4
44
74
FE
18
32
AB
00
00
05
F9
FD
07

// Row 4 (weights pointing to neuron 4)
2F
2F
2F
E8
E8
E8
B9
E8
B9
76
2F
47
A2
B9
E8
D1
D1
00
B9
D1
A2
D1
A2
E8
47
5E
47
B9
5E
00
47
2F
8A
A2
5E
47
7F
2F
80
80
80
E8
80
80
80
8A
B9
00
00
2F
E8
2F
2F
A2
18
00
47
D1
47
B9
5E
5E
8A
80
7F
80
7F
80
5E
8A
80
80
80
80
80
80
80
76
7F
7F
7F
7F
B9
B9
00
B9
E8
47
00
7F
80
7F
7F
80
7F
7F
7F
E8
7F
47
80
80
8A
80
7F
80
80
7F
7F
7F
18
D1
2F
E8
00
E8
7F
7F
80
7F
7F
80
80
80
80
76
80
80
80
7F
7F
7F
7F
7F
7F
80
7F
80
80
D1
E8
2F
00
E8
7F
7F
7F
7F
80
7F
80
80
80
76
7F
7F
7F
7F
7F
7F
47
80
80
47
2F
80
80
B9
B9
5E
7F
7F
7F
7F
7F
7F
7F
00
7F
B9
7F
18
7F
7F
7F
7F
18
7F
7F
7F
7F
80
80
80
80
80
B9
7F
7F
7F
7F
7F
7F
7F
80
A2
80
7F
7F
7F
7F
7F
7F
7F
7F
47
A2
80
7F
80
80
80
80
7F
47
7F
7F
80
7F
7F
7F
7F
80
47
7F
7F
7F
7F
7F
7F
7F
7F
7F
7F
7F
80
2F
80
80
80
80
80
2F
7F
7F
7F
7F
7F
80
80
80
80
00
80
7F
7F
7F
7F
76
7F
7F
7F
7F
7F
76
80
80
80
80
2F
D1
7F
7F
7F
80
7F
80
5E
80
80
80
80
D1
7F
80
47
7F
7F
7F
7F
7F
7F
7F
80
80
80
80
80
00
7F
7F
7F
80
8A
80
80
80
80
8A
7F
7F
80
80
80
7F
7F
7F
7F
7F
7F
7F
80
80
80
80
47
A2
7F
7F
7F
7F
80
7F
80
7F
7F
7F
7F
7F
7F
80
80
7F
7F
7F
7F
80
7F
7F
7F
7F
80
80
B9
2F
7F
7F
7F
7F
7F
7F
7F
7F
7F
7F
7F
80
00
80
80
7F
7F
80
7F
80
80
7F
7F
7F
80
80
80
A2
7F
7F
7F
7F
7F
7F
7F
7F
7F
7F
80
80
80
80
80
80
E8
00
7F
7F
7F
7F
7F
7F
80
80
47
B9
7F
7F
7F
7F
7F
7F
7F
7F
7F
00
80
80
80
80
80
80
7F
7F
7F
7F
7F
7F
7F
7F
80
80
80
00
A2
8A
80
E8
7F
7F
7F
7F
7F
7F
80
80
80
80
18
7F
7F
7F
7F
7F
7F
7F
76
7F
80
80
7F
A2
7F
7F
80
80
7F
7F
7F
7F
7F
80
80
80
80
80
7F
7F
7F
7F
7F
7F
7F
7F
7F
80
7F
D1
18
5E
00
7F
8A
80
7F
7F
7F
7F
80
47
80
80
80
80
7F
7F
7F
7F
7F
7F
7F
80
80
80
80
80
80
B9
47
80
7F
7F
7F
7F
80
18
80
47
80
80
80
7F
7F
7F
7F
7F
7F
00
7F
80
80
7F
7F
80
8A
D1
7F
7F
7F
7F
B9
7F
80
80
E8
7F
80
80
80
7F
7F
7F
7F
7F
8A
80
80
80
80
80
00
7F
2F
D1
47
7F
18
7F
80
47
80
80
7F
80
00
7F
7F
7F
00
7F
18
A2
2F
80
80
80
80
7F
80
E8
8A
00
47
D1
7F
7F
80
D1
7F
7F
7F
7F
7F
7F
7F
80
7F
7F
80
80
80
80
80
7F
7F
80
7F
80
76
E8
18
7F
7F
80
80
80
7F
7F
E8
7F
7F
7F
7F
7F
7F
80
80
B9
80
80
7F
7F
80
7F
7F
80
A2
B9
8A
80
7F
7F
7F
7F
7F
7F
B9
7F
7F
00
7F
7F
7F
7F
7F
80
80
7F
80
80
80
7F
7F
D1
00
A2
2F
5E
80
7F
7F
7F
7F
7F
80
7F
7F
7F
7F
00
7F
E8
80
80
80
80
18
00
80
80
2F
A2
00
00
8A
47
B9
80
7F
80
7F
80
80
80
80
80
80
80
80
80
80
80
7F
7F
80
7F
80
47
A2
B9
00
00
B9
5E
A2
76
7F
47
80
80
2F
80
80
80
7F
80
80
7F
7F
7F
80
7F
80
7F
76
5E
2F
D1
A2

// Row 5 (weights pointing to neuron 5)
00
E3
39
E3
72
1D
72
C7
72
56
72
E3
8E
39
C7
00
00
56
E3
8E
39
C7
39
E3
C7
C7
1D
00
C7
C7
56
39
39
1D
E3
8E
7F
E3
1D
7F
7F
39
80
80
80
1D
8E
00
00
00
8E
E3
C7
72
1D
72
C7
AA
72
8E
56
00
C7
80
72
7F
80
7F
7F
7F
80
80
80
80
80
7F
7F
80
80
80
8E
80
39
AA
C7
1D
39
00
C7
7F
7F
7F
7F
7F
7F
7F
7F
7F
39
7F
7F
7F
7F
7F
7F
7F
80
7F
7F
7F
1D
E3
56
00
80
AA
7F
7F
7F
7F
7F
7F
7F
7F
7F
7F
7F
7F
7F
7F
7F
7F
7F
80
80
80
7F
7F
80
1D
72
00
56
7F
7F
7F
7F
7F
7F
7F
7F
7F
7F
7F
7F
7F
7F
7F
E3
7F
7F
80
80
7F
7F
7F
80
AA
AA
C7
7F
80
7F
7F
80
80
7F
80
80
80
80
7F
7F
7F
8E
80
7F
80
7F
80
80
7F
7F
7F
7F
7F
39
7F
80
56
7F
7F
80
AA
1D
80
80
80
80
7F
7F
7F
7F
39
7F
80
80
80
80
7F
7F
7F
7F
7F
39
80
80
7F
7F
80
7F
80
80
80
80
80
80
AA
80
7F
7F
39
8E
7F
7F
7F
7F
8E
7F
7F
7F
7F
AA
80
80
80
7F
80
80
7F
80
80
80
80
80
39
7F
7F
80
80
7F
7F
7F
7F
7F
7F
7F
7F
7F
00
E3
80
80
80
80
80
56
80
80
80
80
80
80
00
7F
AA
80
80
80
8E
80
80
7F
C7
7F
7F
7F
7F
00
80
80
80
80
80
80
80
80
80
80
7F
7F
7F
7F
80
80
80
80
AA
80
80
80
80
7F
7F
7F
AA
E3
80
80
80
80
80
80
80
80
80
7F
7F
7F
7F
7F
7F
7F
7F
80
7F
80
80
80
80
80
7F
7F
72
1D
80
80
80
80
AA
7F
8E
7F
7F
7F
7F
7F
7F
7F
7F
7F
7F
7F
80
80
80
80
80
80
7F
7F
00
E3
80
80
80
80
7F
72
80
7F
7F
7F
7F
7F
7F
7F
7F
7F
7F
7F
80
80
7F
80
80
80
80
80
72
72
7F
39
80
80
80
80
80
7F
7F
7F
7F
7F
7F
7F
7F
7F
7F
80
80
80
80
00
7F
80
7F
7F
7F
E3
E3
7F
7F
80
80
39
80
80
80
7F
7F
7F
7F
C7
80
7F
7F
80
56
7F
80
7F
7F
7F
80
80
72
8E
E3
7F
7F
7F
7F
7F
7F
80
80
80
80
80
80
80
56
7F
7F
7F
7F
7F
7F
7F
7F
7F
80
7F
1D
00
AA
7F
7F
7F
7F
7F
7F
7F
80
80
80
80
80
80
7F
7F
7F
7F
7F
7F
7F
7F
7F
7F
39
80
7F
8E
56
7F
7F
7F
7F
7F
7F
7F
7F
7F
80
80
56
C7
7F
7F
7F
7F
7F
7F
7F
7F
7F
7F
E3
7F
C7
AA
80
7F
7F
7F
7F
7F
7F
7F
7F
7F
80
80
72
7F
7F
7F
7F
7F
7F
7F
7F
7F
7F
39
80
80
C7
C7
C7
7F
7F
7F
7F
7F
7F
7F
7F
C7
80
7F
7F
7F
56
7F
7F
7F
7F
7F
7F
7F
7F
80
80
7F
C7
39
39
7F
7F
7F
39
72
7F
7F
72
7F
7F
7F
7F
7F
7F
7F
7F
7F
7F
7F
7F
7F
00
80
80
00
E3
C7
8E
7F
7F
7F
7F
80
C7
7F
7F
7F
7F
7F
7F
7F
7F
7F
7F
7F
7F
7F
7F
7F
80
80
7F
80
C7
00
1D
7F
7F
7F
80
7F
7F
72
7F
7F
7F
7F
7F
7F
7F
7F
7F
E3
00
80
80
7F
1D
80
7F
C7
C7
00
1D
8E
80
7F
80
7F
7F
7F
7F
7F
7F
7F
7F
7F
80
80
80
80
80
80
80
7F
80
80
1D
56
72
AA
1D
8E
39
7F
80
80
80
80
7F
1D
80
80
80
80
80
80
80
80
80
80
80
80
C7
56
39
E3
AA
39
56
72
C7
C7
80
80
80
80
80
80
80
80
80
80
80
80
80
80
7F
80
7F
80
56
39
56
E3
C7

// Row 6 (weights pointing to neuron 6)
3A
E3
1D
00
75
E3
8B
C6
E3
00
A8
C6
E3
1D
A8
A8
C6
1D
1D
E3
58
E3
00
00
1D
58
00
E3
A8
3A
00
3A
E3
58
1D
E3
1D
E3
00
7F
7F
C6
58
80
80
1D
58
E3
58
75
3A
C6
A8
E3
3A
3A
E3
3A
75
3A
E3
00
75
1D
80
80
80
80
7F
C6
80
80
80
80
80
7F
7F
7F
7F
80
80
80
00
E3
58
C6
C6
75
C6
80
7F
7F
80
7F
80
80
7F
80
80
80
80
7F
7F
7F
7F
7F
E3
7F
7F
7F
58
A8
E3
58
80
E3
7F
7F
7F
75
80
7F
80
7F
7F
7F
1D
75
80
80
80
7F
80
8B
7F
7F
7F
7F
80
58
1D
1D
3A
80
80
80
80
E3
3A
7F
7F
7F
1D
7F
1D
80
A8
80
1D
80
7F
80
A8
7F
7F
7F
80
00
E3
00
80
80
80
C6
80
C6
7F
80
7F
7F
7F
7F
3A
3A
A8
1D
80
C6
80
C6
80
7F
7F
7F
7F
1D
1D
7F
80
7F
80
7F
80
7F
7F
7F
7F
7F
7F
7F
7F
7F
7F
7F
7F
80
00
80
7F
7F
7F
7F
7F
7F
3A
80
7F
7F
80
80
7F
80
7F
7F
3A
7F
80
80
80
8B
7F
7F
7F
80
7F
58
7F
E3
7F
7F
7F
1D
8B
80
80
80
80
80
80
7F
7F
7F
7F
7F
75
3A
80
80
80
80
7F
80
1D
7F
7F
7F
7F
7F
7F
00
C6
80
E3
80
7F
80
7F
7F
80
7F
7F
75
80
80
80
80
80
80
80
80
A8
80
75
7F
7F
7F
7F
7F
8B
80
80
80
80
C6
7F
7F
7F
7F
7F
7F
7F
7F
C6
80
80
80
80
80
80
80
80
80
7F
7F
7F
A8
8B
80
80
80
80
00
7F
7F
7F
7F
7F
7F
7F
7F
7F
80
80
80
80
80
8B
80
80
80
80
3A
7F
75
75
80
80
80
80
7F
7F
7F
7F
7F
7F
7F
7F
7F
8B
80
80
1D
7F
75
7F
3A
7F
80
80
80
80
80
A8
80
80
80
7F
7F
7F
7F
7F
7F
7F
7F
7F
7F
E3
80
80
3A
7F
1D
00
7F
7F
7F
7F
80
80
3A
00
7F
7F
80
80
80
80
80
7F
7F
7F
7F
7F
1D
80
80
80
3A
00
7F
7F
80
7F
7F
80
A8
80
80
1D
3A
75
80
80
58
80
80
80
80
7F
7F
7F
C6
80
80
80
7F
7F
7F
7F
80
7F
7F
7F
80
80
80
A8
3A
7F
1D
80
7F
7F
00
80
80
80
80
80
80
80
80
80
7F
7F
7F
7F
7F
E3
7F
A8
80
80
00
3A
75
7F
7F
7F
7F
7F
7F
00
80
80
80
80
80
80
7F
7F
7F
7F
7F
7F
7F
7F
80
E3
80
80
80
A8
7F
7F
7F
7F
7F
7F
7F
7F
7F
C6
1D
80
80
80
7F
7F
7F
7F
7F
7F
7F
80
80
80
80
80
80
1D
7F
E3
7F
7F
7F
7F
80
7F
7F
7F
00
C6
A8
80
7F
7F
7F
7F
7F
7F
E3
7F
80
80
80
E3
00
58
58
7F
7F
7F
7F
7F
7F
7F
C6
80
80
7F
7F
7F
7F
7F
7F
7F
7F
7F
7F
7F
80
80
80
00
C6
A8
E3
7F
7F
7F
7F
80
80
C6
80
1D
7F
7F
7F
58
7F
7F
7F
75
7F
1D
7F
80
80
80
80
80
E3
1D
8B
7F
7F
7F
7F
80
80
80
7F
7F
7F
7F
7F
7F
7F
7F
7F
7F
80
3A
80
80
80
80
80
80
3A
58
3A
7F
7F
7F
7F
7F
7F
7F
7F
7F
7F
7F
7F
7F
7F
7F
7F
7F
1D
80
80
80
80
80
80
1D
E3
3A
75
00
7F
7F
80
7F
7F
7F
7F
7F
7F
7F
7F
7F
7F
7F
80
80
80
80
80
80
80
80
8B
C6
A8
8B
C6
E3
00
80
80
80
80
80
E3
80
80
80
80
80
80
80
80
80
80
80
80
80
3A
E3
8B
8B
A8
1D
A8
A8
3A
00
80
80
80
80
80
80
80
80
80
80
80
80
80
80
58
80
7F
80
75
8B
58
E3
E3

// Row 7 (weights pointing to neuron 7)
61
E0
61
E0
61
20
BF
20
E0
20
E0
E0
BF
E0
41
61
BF
00
20
E0
9F
41
BF
00
BF
00
9F
00
E0
9F
41
BF
E0
9F
41
BF
BF
00
61
80
80
61
E0
7F
80
20
E0
41
E0
9F
E0
BF
9F
00
61
7F
80
61
BF
41
00
80
20
7F
80
7F
7F
41
80
80
7F
7F
9F
80
80
80
80
80
20
61
00
61
E0
9F
BF
9F
61
41
20
7F
9F
7F
80
80
7F
7F
80
7F
80
80
80
80
80
80
80
80
80
80
7F
00
20
80
20
20
7F
61
7F
41
80
80
7F
7F
7F
7F
7F
7F
7F
80
80
80
80
80
80
80
80
7F
80
80
20
BF
00
E0
61
7F
7F
7F
7F
7F
7F
7F
7F
7F
7F
7F
80
7F
80
80
80
80
80
80
80
80
80
80
80
E0
00
BF
80
7F
7F
7F
7F
7F
7F
7F
7F
7F
80
7F
7F
7F
7F
00
80
80
80
80
80
80
80
80
80
BF
00
9F
7F
20
7F
7F
7F
7F
41
7F
80
7F
7F
7F
7F
7F
7F
7F
80
80
80
80
80
80
80
80
80
80
00
7F
7F
61
7F
7F
7F
7F
7F
80
7F
7F
7F
7F
7F
7F
7F
20
80
80
80
80
80
80
80
80
80
80
E0
7F
7F
7F
7F
7F
7F
80
7F
00
7F
7F
7F
7F
7F
7F
7F
80
80
80
80
80
80
80
80
80
80
20
7F
7F
7F
7F
20
20
BF
7F
7F
00
7F
7F
7F
7F
7F
E0
80
80
80
80
80
7F
80
80
80
80
80
80
20
7F
7F
7F
7F
61
7F
7F
00
7F
7F
7F
7F
7F
7F
7F
80
7F
80
00
7F
7F
7F
80
80
80
80
BF
00
7F
7F
7F
80
7F
BF
41
7F
7F
80
80
80
80
7F
80
BF
7F
00
7F
7F
7F
20
80
80
80
E0
BF
00
7F
7F
80
7F
7F
80
E0
7F
7F
BF
80
80
20
7F
80
7F
7F
7F
7F
20
7F
00
80
80
80
7F
7F
00
7F
7F
7F
80
80
80
41
41
80
00
80
80
80
61
7F
7F
7F
7F
7F
7F
7F
7F
BF
80
E0
7F
20
BF
7F
7F
80
7F
7F
7F
61
E0
7F
61
80
80
80
80
7F
7F
7F
7F
7F
7F
7F
7F
80
80
80
7F
9F
BF
00
80
00
7F
80
80
80
7F
7F
80
80
80
80
80
7F
7F
41
7F
7F
7F
7F
BF
BF
80
7F
7F
80
E0
41
80
7F
7F
9F
80
80
80
80
80
80
80
7F
41
7F
7F
7F
80
80
7F
7F
BF
80
80
7F
7F
00
E0
61
80
80
7F
80
80
80
80
7F
80
80
80
80
7F
7F
7F
7F
7F
80
80
61
80
80
80
7F
7F
7F
00
41
80
41
7F
7F
80
80
20
80
80
80
80
BF
7F
7F
E0
7F
80
80
80
80
7F
BF
80
7F
7F
BF
BF
80
80
7F
80
80
80
80
80
80
80
80
80
80
7F
7F
7F
BF
80
7F
80
E0
80
80
80
7F
7F
BF
20
61
BF
80
80
80
80
80
80
80
80
80
7F
BF
BF
80
7F
80
80
80
80
80
80
80
7F
7F
BF
61
00
20
80
80
80
80
80
80
80
80
80
7F
7F
80
80
9F
80
80
80
7F
80
80
BF
7F
7F
7F
61
9F
20
00
80
80
80
80
80
80
80
80
80
80
80
80
9F
80
80
20
80
80
80
7F
7F
7F
7F
80
7F
BF
BF
BF
80
7F
7F
80
80
80
80
80
7F
80
80
80
80
80
80
7F
20
20
7F
7F
7F
7F
7F
80
BF
00
20
E0
41
80
80
80
80
80
7F
7F
41
7F
7F
7F
7F
7F
7F
7F
7F
7F
7F
7F
7F
7F
7F
BF
00
61
20
20
41
9F
7F
80
9F
7F
7F
7F
7F
7F
7F
7F
7F
7F
7F
7F
7F
7F
7F
7F
7F
7F
20
00
00
00
9F
9F
7F
00
41
7F
7F
7F
7F
7F
7F
7F
7F
7F
7F
7F
7F
7F
7F
00
7F
80
7F
BF
00
61
00
61

// Row 8 (weights pointing to neuron 8)
04
00
FA
04
FD
01
FD
FF
FF
03
FF
FC
06
01
03
03
FF
FC
03
FF
01
FF
FD
04
FF
FA
FC
FC
01
00
FF
FF
FF
FC
06
00
FC
FF
06
FD
F7
01
1C
09
C0
FF
06
FD
03
FD
06
00
01
FC
01
FD
01
04
FD
FF
01
03
00
04
FA
DD
C5
1A
FF
07
01
DA
CD
E3
F7
17
07
29
23
CA
DE
DD
04
01
04
00
04
FC
04
12
EE
E7
C3
19
FF
BA
EC
DB
E1
CA
F0
26
FC
CD
F6
F0
F3
14
17
38
FD
FD
FA
FD
17
FA
FD
2C
F3
EE
F7
D1
D4
FF
F1
17
EA
45
1D
0A
06
FD
01
EC
2A
52
0D
FA
AB
FF
FC
01
FD
03
09
12
09
F9
BD
D4
D6
B2
ED
F0
D1
EC
01
DA
F4
E7
F9
DE
D6
0C
07
04
E3
01
00
04
0C
4E
04
FA
07
E6
E1
E6
EC
03
00
F3
FF
06
E4
0C
F0
10
F7
ED
CD
F0
FF
F7
04
04
00
09
EA
49
04
32
0C
F7
DD
F0
F9
0F
00
10
13
26
12
04
16
23
28
26
20
12
E6
F3
FA
F0
FD
28
0D
20
1C
33
F9
19
E9
D3
F0
F1
EA
20
2F
1A
1F
26
25
3F
40
65
58
28
3F
4F
33
0F
09
1F
2D
16
28
10
20
F7
D8
C4
CA
DD
22
42
58
39
3F
2A
30
33
32
48
40
30
7F
62
F1
10
06
22
40
42
3F
00
0F
F0
BB
80
C0
E1
17
3D
75
45
3F
1C
1C
28
28
36
42
7F
7F
7F
63
17
01
2D
50
38
28
EA
16
CD
B0
9E
B7
F3
1F
50
66
3D
29
0D
16
F6
EA
03
F3
2C
56
58
68
FF
00
36
4C
39
1A
0F
E4
01
DB
B8
E1
DE
04
3D
46
29
F6
F1
F0
B7
9B
BB
9D
91
80
EA
F3
01
FC
E6
46
48
75
10
32
10
07
C1
C5
E4
01
1A
2C
28
04
FD
F7
EC
B8
B2
A7
80
85
8B
C3
FF
00
07
F1
49
0F
F1
FD
ED
F9
E4
E3
E7
07
0A
30
17
FC
0D
F1
E3
00
D0
85
80
8E
E7
DB
03
FC
0D
01
EE
20
06
E9
C8
C0
F1
CB
F9
22
FF
19
0A
06
07
0F
E7
17
E3
A2
84
A2
81
DE
F9
03
FF
F1
D8
0A
25
F3
BB
CA
CE
BA
D8
FF
2A
FF
0C
20
2C
0A
0A
E3
AB
80
92
95
9A
F3
FD
FD
FF
C5
ED
0F
3B
39
1C
CA
DA
F6
01
13
2A
26
26
06
25
06
EA
D6
BE
9A
81
8F
9E
07
03
FC
06
07
E7
00
06
58
28
F4
EE
E7
07
03
25
3F
28
12
26
26
D8
B7
A4
80
80
A8
A7
13
04
FC
00
DD
ED
FF
0A
EE
3D
FA
13
FD
0D
13
2C
35
23
01
F0
DA
EC
DA
8C
A2
A7
BE
0A
0D
FF
06
20
DD
FF
CE
D6
1F
FA
09
19
0F
F4
0F
07
32
20
D8
E1
C8
C4
80
80
80
D7
03
04
14
04
06
FD
16
10
E0
FF
22
07
13
00
0A
FF
FD
14
17
F9
EE
CB
C3
AE
AA
80
95
B2
D7
0D
01
FF
01
01
D4
14
F9
2C
2A
06
13
17
17
04
1A
F9
13
DA
E3
D0
9D
D3
80
9D
AD
BB
DB
E7
09
FF
04
04
E7
BB
01
10
09
2C
16
FF
06
16
F4
ED
EC
EE
9B
B0
8E
80
A4
B5
B2
03
C7
F4
2F
01
04
FC
ED
13
07
40
38
25
2C
DE
FC
ED
16
0F
E7
FD
CE
FA
C3
DE
F3
E0
DD
E6
00
FC
04
FD
FD
FF
01
07
FC
43
19
3F
2A
4E
2F
2F
42
4E
3B
55
7C
2D
45
33
2F
0A
FF
CD
06
00
FD
FD
03
06
FD
FF
EC
0D
17
FA
1A
12
17
38
28
29
35
42
1D
F7
04
FC
23
0D
33
03
01
01
03
FD
03
04
04
01
00
17
12
39
49
1C
4C
0C
14
76
13
F4
4B
4E
19
F1
20
FA
03
03
FA
01
FF
FD

// Row 9 (weights pointing to neuron 9)
CE
19
E7
00
64
E7
E7
19
CE
00
E7
B5
00
32
E7
CE
64
CE
4B
00
4B
64
B5
83
E7
CE
CE
64
CE
00
00
32
19
19
32
19
E7
32
19
80
80
83
7F
80
80
80
B5
19
B5
CE
CE
19
CE
4B
19
CE
4B
E7
4B
4B
B5
19
B5
00
00
83
7F
80
19
7F
7F
7F
80
80
80
80
E7
00
19
00
E7
32
00
9C
19
E7
00
CE
E7
B5
CE
E7
80
7F
7F
80
7F
7F
7F
9C
80
19
80
80
9C
7F
7F
7F
00
E7
4B
32
64
E7
00
B5
80
7F
7F
7F
80
80
80
80
80
7F
80
80
80
7F
80
80
7F
7F
7F
7F
7F
80
7F
9C
32
9C
4B
80
80
7F
7F
7F
32
7F
83
80
80
80
80
80
B5
80
80
80
80
80
80
7F
7F
80
64
B5
E7
E7
7F
80
80
7F
7F
7F
7F
80
80
80
80
80
80
80
80
80
80
80
80
7F
7F
19
7F
80
7F
7F
00
80
80
7F
7F
80
7F
7F
E7
80
80
80
80
E7
80
80
80
80
80
80
80
B5
80
80
80
7F
80
83
80
80
80
80
7F
83
7F
83
CE
7F
80
80
80
80
80
80
80
80
80
80
80
80
80
80
80
80
80
80
B5
80
80
80
80
80
80
7D
80
80
80
80
80
80
80
80
80
80
80
B5
80
80
80
80
80
80
7F
9C
E7
80
80
80
80
80
80
80
7F
7F
E7
80
B5
80
80
7F
7F
7F
E7
80
80
80
80
80
80
80
80
80
CE
80
80
80
80
80
80
7F
7F
7F
7F
7F
7F
80
80
7F
7F
7F
80
9C
B5
B5
80
80
80
7F
80
4B
CE
80
80
80
B5
80
7F
7F
7F
7F
7F
7F
7F
80
7F
7F
7F
7F
7F
7F
7D
7D
80
80
80
80
80
B5
CE
83
80
19
7F
7F
7F
7F
7F
7F
7F
7F
7F
7F
7F
7F
7F
7F
7F
7F
7F
7F
7F
80
80
80
80
4B
E7
80
80
80
7F
7F
7F
7F
7F
7F
7F
7F
7F
7F
7F
7F
7F
7F
7F
7F
7F
7F
80
7F
80
80
80
4B
19
CE
7F
7F
7F
80
7F
7F
7F
7F
7F
7F
7F
7F
7F
7F
7F
7F
7F
7F
4B
80
7F
00
80
80
80
80
19
32
80
4B
80
80
80
7F
7F
7F
7F
7F
7F
7F
7F
7F
7F
7F
7F
7F
80
E7
83
80
80
80
80
80
4B
9C
80
80
80
80
80
80
7F
7F
7F
CE
4B
7F
7F
7F
7F
7F
19
80
80
80
80
80
80
80
7F
32
19
64
7F
80
80
80
80
80
32
80
80
7F
00
7F
7F
7F
7F
80
80
80
80
80
80
80
80
80
B5
4B
00
83
64
80
80
80
80
80
80
80
80
80
80
7F
7F
CE
80
80
80
80
80
80
80
80
80
80
7F
19
9C
B5
E7
7F
80
80
80
80
80
80
80
80
80
80
80
80
80
80
80
80
80
80
80
80
80
80
7F
00
9C
83
80
80
80
80
80
80
80
80
80
80
80
80
80
80
80
B5
80
80
80
80
80
80
80
80
B5
32
64
4B
80
80
80
80
80
80
80
80
80
80
80
80
80
80
80
83
80
80
80
80
80
80
80
7F
E7
E7
4B
4B
19
80
80
7F
7F
7F
80
80
80
80
80
80
80
80
80
9C
80
80
80
7F
80
80
80
7F
80
32
00
19
B5
80
7F
7F
7F
80
80
80
E7
80
80
80
80
80
80
00
19
7F
7F
7F
7F
64
80
80
4B
E7
E7
CE
E7
CE
7F
7F
7F
7F
7F
80
7F
32
80
80
80
80
80
7F
80
83
7F
7F
7F
80
80
19
E7
32
9C
9C
9C
B5
7F
7F
B5
7F
E7
80
80
80
80
80
80
80
80
80
83
7F
7F
7F
80
B5
32
00
E7
9C
19
32
CE
E7
E7
80
80
80
80
80
80
80
80
80
80
7F
80
80
80
4B
80
7F
80
19
CE
19
9C
4B

// Row 10 (weights pointing to neuron 10)
D3
00
00
D3
A7
D3
D3
2D
00
00
A7
D3
2D
2D
00
2D
2D
00
00
59
00
00
00
D3
7F
D3
2D
59
D3
59
59
00
2D
00
2D
2D
7F
2D
80
7F
7F
A7
80
80
80
80
80
00
80
A7
59
00
59
59
2D
A7
59
A7
7F
59
2D
59
D3
D3
7F
80
80
80
7F
80
80
80
80
80
80
7F
7F
7F
7F
80
80
80
59
2D
A7
D3
59
2D
2D
80
80
7F
80
80
80
7F
7F
80
80
80
80
7F
7F
80
80
80
80
7F
7F
7F
2D
A7
D3
2D
80
59
7F
7F
80
80
80
7F
7F
7F
7F
7F
7F
7F
00
7F
7F
7F
80
80
80
80
7F
7F
80
A7
2D
00
59
80
80
80
80
80
7F
7F
7F
7F
7F
7F
7F
7F
59
7F
7F
7F
7F
80
80
80
80
7F
7F
D3
D3
59
7F
80
80
80
80
7F
7F
7F
7F
7F
7F
7F
7F
7F
7F
7F
7F
7F
7F
A7
A7
80
7F
7F
80
A7
59
80
80
80
80
80
7F
80
59
7F
7F
7F
7F
7F
7F
7F
7F
7F
7F
7F
7F
80
80
7F
7F
7F
80
7F
A7
80
80
80
80
80
7F
80
D3
7F
7F
7F
7F
7F
7F
7F
7F
7F
7F
7F
7F
7F
7F
7F
7F
7F
80
80
D3
80
80
80
80
D3
7F
80
00
7F
7F
80
7F
7F
7F
D3
80
7F
7F
7F
7F
7F
7F
7F
7F
7F
7F
80
80
80
80
80
D3
D3
7F
7F
7F
7F
00
7F
7F
7F
80
80
80
00
7F
7F
7F
7F
7F
7F
7F
80
80
80
00
A7
80
80
00
7F
7F
7F
7F
7F
7F
7F
D3
7F
7F
80
80
7F
7F
7F
7F
7F
7F
7F
7F
2D
80
2D
D3
80
80
7F
7F
7F
7F
7F
7F
7F
7F
7F
59
7F
7F
80
80
7F
7F
7F
7F
7F
7F
7F
7F
80
7F
A7
A7
80
80
7F
7F
7F
7F
7F
7F
7F
7F
80
80
7F
7F
7F
59
80
7F
7F
7F
7F
7F
7F
7F
7F
80
80
59
80
80
7F
7F
7F
7F
7F
7F
7F
7F
80
80
7F
80
80
80
80
80
59
80
7F
7F
7F
7F
80
80
59
7F
7F
80
80
7F
7F
7F
7F
7F
7F
2D
80
80
80
80
80
80
80
80
2D
80
80
7F
80
80
80
80
80
A7
00
80
80
80
80
7F
7F
7F
59
7F
80
80
80
80
80
A7
7F
7F
80
80
80
80
80
80
80
80
80
D3
59
80
80
80
7F
7F
7F
7F
7F
80
80
80
80
80
80
7F
7F
7F
7F
D3
7F
7F
80
80
80
80
80
D3
00
80
80
80
80
7F
7F
7F
7F
7F
80
80
80
80
80
7F
7F
7F
7F
7F
7F
7F
80
80
80
80
80
A7
59
2D
7F
80
7F
7F
7F
7F
7F
7F
80
80
80
80
80
80
59
7F
7F
7F
7F
7F
7F
80
80
80
80
00
7F
7F
80
80
7F
7F
7F
7F
7F
7F
80
80
80
80
80
59
2D
7F
7F
7F
7F
7F
80
80
80
80
2D
D3
2D
80
80
80
80
7F
7F
7F
7F
80
2D
7F
7F
80
80
7F
2D
7F
7F
7F
7F
7F
80
80
80
00
00
59
59
80
80
80
80
80
A7
7F
7F
7F
7F
7F
7F
7F
7F
7F
80
80
80
80
2D
80
80
2D
7F
80
A7
D3
2D
7F
7F
80
80
80
59
7F
7F
7F
7F
7F
7F
7F
7F
7F
7F
80
59
7F
7F
7F
7F
7F
80
80
00
59
00
7F
7F
7F
D3
7F
7F
7F
7F
7F
7F
7F
7F
7F
7F
7F
7F
7F
7F
7F
7F
7F
7F
7F
80
D3
59
D3
80
2D
7F
7F
7F
7F
7F
7F
7F
7F
7F
7F
7F
7F
7F
7F
7F
7F
7F
7F
7F
7F
7F
7F
59
D3
D3
59
59
00
59
7F
7F
7F
7F
7F
7F
7F
7F
7F
7F
7F
7F
7F
7F
7F
7F
7F
7F
80
7F
59
59
D3
A7
2D
59
59
59
D3
80
80
7F
80
80
80
7F
7F
80
7F
80
80
80
A7
7F
80
7F
80
2D
D3
2D
A7
A7

// Row 11 (weights pointing to neuron 11)
6E
AE
C9
1B
AE
37
92
6E
C9
6E
E5
92
37
C9
7F
6E
00
E5
E5
E5
1B
00
C9
6E
C9
52
52
AE
AE
37
1B
E5
1B
00
C9
52
7F
52
00
80
80
E5
80
80
7F
E5
80
E5
92
1B
C9
52
AE
E5
52
1B
C9
6E
92
1B
37
00
E5
00
52
7F
7F
80
7F
7F
80
1B
7F
7F
7F
80
80
7F
7F
7F
7F
7F
6E
1B
52
AE
00
52
C9
80
7F
7F
7F
80
7F
7F
7F
80
7F
7F
7F
80
80
80
80
1B
7F
80
80
80
1B
E5
1B
1B
C9
52
80
80
7F
7F
7F
7F
7F
7F
7F
52
7F
80
80
80
80
80
80
00
80
80
80
80
7F
AE
E5
1B
00
1B
C9
7F
7F
7F
7F
7F
7F
7F
7F
1B
7F
7F
7F
80
80
80
80
80
80
80
1B
80
80
E5
6E
C9
80
80
7F
7F
AE
7F
80
80
80
00
E5
80
7F
52
80
80
80
80
80
80
80
00
80
80
80
7F
37
92
7F
80
7F
80
80
C9
80
80
80
80
AE
92
7F
7F
80
80
80
7F
80
80
80
80
80
80
80
7F
E5
80
80
80
7F
80
7F
37
80
80
80
80
37
7F
7F
7F
80
80
80
80
80
80
80
80
80
80
80
80
1B
80
80
7F
7F
00
52
7F
80
80
80
80
92
7F
7F
7F
80
80
80
E5
80
7F
80
C9
80
80
80
E5
E5
92
80
80
80
7F
7F
52
7F
E5
80
80
80
80
80
80
80
80
7F
37
80
92
80
80
80
80
80
80
AE
80
80
7F
7F
7F
7F
80
80
80
80
80
80
80
80
80
80
80
80
7F
80
7F
37
7F
7F
80
80
1B
AE
80
80
7F
7F
7F
7F
7F
7F
C9
80
80
80
80
80
80
80
80
7F
7F
7F
7F
7F
7F
7F
7F
80
AE
37
80
80
7F
7F
7F
7F
7F
7F
7F
7F
00
80
80
80
80
80
80
92
7F
7F
7F
7F
80
AE
7F
7F
7F
6E
80
80
7F
7F
7F
7F
7F
7F
7F
7F
7F
80
80
80
80
7F
7F
7F
7F
7F
7F
AE
80
80
7F
7F
37
AE
80
80
7F
80
7F
7F
7F
7F
7F
7F
80
80
80
7F
7F
7F
7F
7F
7F
7F
80
80
80
80
7F
7F
7F
1B
6E
80
7F
7F
7F
7F
7F
7F
7F
7F
7F
7F
7F
7F
7F
7F
7F
7F
7F
7F
1B
7F
80
7F
7F
7F
7F
C9
52
7F
80
7F
7F
7F
7F
7F
7F
7F
52
7F
7F
7F
7F
7F
7F
7F
7F
7F
80
7F
37
7F
7F
7F
6E
6E
37
80
80
7F
7F
7F
7F
7F
6E
80
37
7F
7F
7F
7F
7F
7F
7F
7F
7F
7F
7F
7F
52
7F
7F
7F
92
C9
7F
80
C9
7F
7F
37
80
80
80
7F
7F
7F
7F
7F
7F
7F
7F
1B
AE
7F
1B
37
AE
7F
7F
7F
1B
80
7F
80
7F
7F
7F
7F
80
80
80
7F
7F
7F
7F
7F
7F
92
7F
80
80
7F
6E
7F
7F
7F
7F
C9
E5
1B
AE
AE
7F
7F
80
7F
1B
1B
80
80
80
80
7F
7F
7F
7F
7F
7F
7F
7F
7F
7F
7F
7F
7F
52
E5
C9
7F
80
7F
80
6E
7F
7F
7F
E5
80
80
80
80
6E
80
80
7F
7F
7F
7F
7F
7F
7F
7F
6E
00
37
37
80
52
80
7F
7F
AE
7F
80
80
80
80
80
80
80
80
80
80
7F
7F
7F
7F
7F
00
7F
80
00
92
52
80
80
80
80
80
80
80
80
80
80
80
80
80
80
80
80
80
E5
80
80
7F
92
7F
7F
52
C9
E5
52
AE
80
7F
80
7F
80
80
80
80
80
E5
1B
80
80
80
7F
80
80
7F
AE
80
80
80
37
37
1B
37
92
E5
1B
7F
7F
7F
7F
7F
80
7F
7F
7F
7F
7F
7F
7F
00
00
6E
7F
7F
80
80
C9
1B
AE
37
1B
92
37
1B
52
92
92
80
80
80
80
7F
7F
80
7F
80
7F
80
80
7F
80
7F
80
1B
AE
6E
52
37

// Row 12 (weights pointing to neuron 12)
1B
AF
E5
E5
00
51
1B
51
00
AF
6D
93
1B
7F
6D
51
6D
36
51
1B
6D
1B
36
93
1B
93
E5
00
AF
CA
E5
AF
36
CA
AF
AF
80
51
00
80
80
E5
7F
7F
80
1B
6D
51
6D
AF
6D
CA
51
AF
00
E5
00
1B
36
1B
93
36
51
80
80
80
80
7F
80
7F
7F
7F
E5
7F
7F
7F
7F
7F
6D
80
80
80
AF
51
00
CA
AF
AF
93
80
80
80
80
7F
80
80
80
80
6D
93
80
7F
7F
7F
80
1B
7F
7F
7F
80
51
1B
CA
CA
80
CA
80
80
7F
80
80
80
00
80
7F
80
7F
7F
7F
7F
7F
7F
80
7F
80
7F
7F
7F
7F
36
E5
1B
00
80
80
80
80
80
6D
80
7F
CA
7F
7F
7F
00
1B
80
80
7F
7F
7F
7F
6D
7F
7F
7F
00
00
AF
80
80
80
80
80
80
80
80
80
80
E5
51
6D
7F
7F
80
CA
7F
7F
7F
7F
7F
7F
7F
7F
7F
93
80
80
80
80
80
80
80
80
80
80
80
80
7F
7F
7F
80
80
80
80
7F
7F
80
7F
7F
7F
7F
1B
80
80
80
80
80
80
80
80
80
80
80
80
7F
7F
7F
80
80
80
80
80
80
7F
00
7F
7F
7F
7F
7F
80
80
80
80
80
80
80
80
AF
7F
7F
7F
7F
7F
80
80
80
80
80
80
80
E5
7F
7F
7F
7F
7F
CA
80
80
80
80
80
80
AF
93
7F
7F
7F
7F
7F
7F
7F
80
80
80
80
80
80
80
80
7F
7F
7F
7F
7F
CA
80
80
80
80
7F
7F
7F
7F
7F
7F
7F
7F
7F
7F
93
80
80
80
80
80
80
80
51
7F
7F
7F
36
80
80
80
80
80
7F
7F
7F
7F
7F
7F
7F
7F
7F
7F
7F
7F
7F
6D
7F
7F
1B
7F
7F
80
7F
7F
93
E5
80
80
80
80
7F
7F
7F
7F
7F
93
7F
7F
7F
7F
7F
7F
7F
7F
7F
7F
7F
E5
80
80
80
7F
7F
CA
80
80
80
80
AF
7F
80
AF
51
6D
7F
7F
7F
7F
7F
7F
7F
80
80
80
80
80
80
80
80
7F
AF
AF
80
80
80
80
80
80
80
80
1B
93
7F
7F
7F
7F
7F
7F
80
80
80
80
80
80
80
80
7F
7F
80
6D
AF
80
80
CA
80
80
80
7F
51
7F
7F
7F
7F
7F
36
CA
80
80
80
80
80
80
7F
7F
80
80
80
51
CA
80
80
7F
80
80
7F
7F
7F
7F
7F
7F
7F
7F
80
80
80
80
80
80
80
80
CA
7F
80
80
00
36
93
80
80
80
80
7F
7F
7F
7F
7F
7F
7F
7F
1B
CA
80
80
80
80
80
80
7F
7F
7F
80
7F
7F
93
CA
7F
80
80
80
80
6D
80
7F
80
51
CA
7F
80
CA
7F
80
80
80
7F
7F
7F
7F
80
80
7F
7F
1B
80
80
80
80
7F
80
7F
51
80
80
80
80
7F
93
80
7F
7F
7F
7F
7F
7F
7F
36
80
80
80
E5
1B
93
80
80
80
7F
E5
E5
CA
7F
AF
80
93
7F
7F
7F
7F
7F
7F
7F
7F
7F
7F
80
80
80
80
1B
E5
36
80
80
80
80
80
80
80
80
CA
80
7F
7F
7F
7F
7F
7F
7F
7F
6D
36
80
80
7F
7F
AF
6D
36
E5
CA
80
80
80
93
80
80
AF
80
E5
7F
7F
00
CA
7F
7F
7F
7F
7F
80
80
7F
80
80
51
00
93
51
AF
80
80
80
80
80
80
7F
80
80
7F
80
7F
7F
7F
51
7F
7F
80
7F
7F
7F
80
80
00
CA
93
36
51
7F
80
80
80
80
80
80
93
80
80
80
6D
80
7F
7F
6D
7F
7F
7F
7F
7F
7F
36
1B
E5
E5
1B
51
51
7F
80
1B
7F
80
7F
7F
7F
7F
7F
7F
80
7F
7F
7F
80
7F
7F
80
7F
00
1B
00
51
36
6D
00
E5
E5
80
80
AF
80
80
80
80
80
80
7F
7F
80
80
7F
7F
80
7F
7F
51
00
51
CA
51

// Row 13 (weights pointing to neuron 13)
DE
DE
DE
65
9B
65
00
22
DE
22
9B
22
22
65
00
9B
BD
22
22
BD
BD
9B
9B
65
22
43
DE
22
65
DE
22
9B
DE
BD
DE
DE
7F
7F
80
7F
7F
22
80
7F
7F
7F
DE
BD
43
00
DE
9B
43
BD
9B
DE
9B
00
DE
65
22
43
43
7F
7F
7F
7F
80
7F
80
80
BD
7F
7F
7F
80
80
80
80
7F
7F
7F
22
43
65
43
00
80
00
7F
7F
80
7F
80
7F
7F
7F
7F
7F
7F
7F
7F
80
80
80
80
80
80
80
80
DE
00
DE
00
7F
9B
80
80
80
7F
7F
7F
7F
43
7F
7F
7F
7F
7F
7F
7F
9B
80
80
80
80
80
7F
7F
00
65
65
BD
7F
7F
7F
7F
7F
7F
7F
22
7F
7F
7F
7F
7F
7F
7F
7F
7F
80
80
80
80
80
80
7F
BD
DE
65
80
7F
7F
7F
65
22
DE
65
7F
7F
7F
7F
7F
7F
7F
7F
7F
80
7F
80
22
80
80
80
80
80
65
80
7F
80
7F
80
7F
80
80
80
80
BD
7F
7F
7F
7F
7F
7F
7F
7F
7F
7F
80
80
80
80
80
7F
22
80
43
7F
7F
80
80
7F
80
9B
7F
80
7F
7F
7F
7F
7F
7F
7F
7F
7F
7F
7F
7F
80
80
80
80
22
43
80
7F
7F
7F
9B
7F
80
80
80
80
7F
7F
7F
7F
7F
7F
7F
7F
7F
7F
7F
7F
80
80
80
BD
00
80
7F
22
80
7F
80
80
80
80
80
80
7F
7F
7F
7F
7F
7F
7F
7F
7F
7F
7F
7F
80
80
80
9B
22
9B
7F
7F
80
80
80
80
80
80
80
80
80
80
7F
80
80
43
7F
7F
7F
7F
7F
7F
7F
80
80
00
7F
80
7F
80
80
80
80
80
80
80
80
80
80
65
7F
43
80
7F
7F
7F
7F
7F
7F
7F
7F
7F
80
BD
00
80
7F
80
80
80
80
80
80
80
80
80
80
7F
7F
DE
00
80
80
80
80
7F
7F
7F
7F
7F
7F
7F
65
43
80
80
80
80
80
80
80
80
80
80
80
7F
7F
43
80
80
80
BD
80
80
80
7F
7F
7F
7F
BD
BD
80
80
80
80
7F
7F
7F
80
80
80
80
80
7F
7F
00
80
80
80
80
80
80
80
80
7F
7F
7F
7F
DE
43
7F
7F
7F
7F
7F
7F
7F
7F
7F
80
7F
7F
7F
80
7F
22
80
80
7F
7F
7F
7F
7F
7F
7F
7F
9B
43
7F
7F
7F
7F
7F
7F
7F
7F
7F
7F
7F
7F
80
DE
7F
DE
80
7F
9B
80
7F
7F
7F
7F
7F
43
65
DE
80
80
7F
7F
7F
7F
7F
7F
7F
7F
7F
7F
43
7F
7F
7F
7F
7F
7F
DE
7F
7F
7F
7F
43
7F
65
BD
80
80
7F
80
7F
7F
7F
7F
7F
7F
7F
7F
7F
7F
7F
7F
7F
7F
7F
7F
7F
7F
7F
7F
7F
7F
DE
80
7F
80
7F
7F
7F
7F
7F
7F
7F
7F
7F
7F
7F
7F
7F
80
7F
7F
7F
7F
7F
7F
7F
7F
7F
9B
65
DE
00
80
80
65
7F
7F
7F
7F
7F
7F
7F
7F
7F
7F
7F
DE
7F
7F
7F
80
7F
7F
7F
7F
00
00
BD
65
7F
7F
7F
80
7F
7F
7F
7F
7F
7F
7F
7F
7F
7F
80
80
7F
7F
7F
7F
7F
7F
7F
7F
65
43
BD
43
7F
7F
7F
DE
7F
7F
7F
7F
7F
7F
7F
7F
7F
65
7F
80
65
7F
7F
7F
7F
7F
7F
7F
80
DE
43
00
7F
9B
80
80
80
7F
DE
7F
7F
7F
7F
43
7F
80
7F
22
80
80
80
80
7F
DE
7F
7F
00
22
22
9B
00
80
80
9B
7F
80
7F
80
22
22
80
9B
80
80
9B
80
7F
7F
7F
7F
7F
80
7F
22
DE
9B
9B
00
00
9B
7F
7F
7F
7F
7F
7F
7F
7F
7F
7F
7F
7F
7F
7F
7F
7F
7F
7F
80
7F
65
00
22
00
00
DE
7F
9B
65
7F
7F
7F
7F
7F
7F
7F
7F
7F
7F
80
7F
80
7F
7F
7F
7F
80
22
22
BD
9B
DE

// Row 14 (weights pointing to neuron 14)
D3
16
5A
43
90
2D
90
90
16
D3
16
BD
16
43
00
2D
70
D3
2D
EA
BD
16
43
5A
16
16
5A
EA
00
70
A6
43
16
90
16
EA
80
D3
2D
7F
43
5A
7F
7F
2D
5A
43
00
BD
43
5A
43
00
5A
16
70
BD
5A
A6
EA
90
70
BD
D3
16
80
80
7F
80
2D
7F
7F
80
80
80
80
80
80
80
EA
16
00
A6
A6
D3
00
5A
00
16
7F
7F
7F
80
7F
7F
80
00
16
80
80
7F
7F
7F
7F
7F
80
80
80
80
70
EA
EA
16
70
7F
5A
7F
7F
7F
7F
7F
00
7F
7F
5A
7F
7F
7F
7F
80
70
43
7F
D3
7F
7F
80
7F
80
90
90
EA
D3
7F
7F
7F
80
BD
80
00
A6
A6
7F
70
80
7F
7F
80
80
A6
80
7F
7F
7F
7F
BD
80
BD
70
2D
7F
7F
7F
7F
7F
80
7F
80
7F
7F
70
7F
7F
7F
7F
2D
7F
80
D3
80
80
5A
80
80
80
00
43
7F
80
7F
7F
7F
7F
7F
D3
7F
7F
7F
7F
7F
7F
7F
7F
7F
7F
5A
EA
80
80
80
80
80
80
80
70
7F
7F
7F
7F
EA
7F
7F
7F
7F
7F
7F
7F
7F
7F
70
5A
7F
7F
7F
7F
7F
D3
80
80
80
7F
7F
00
7F
7F
7F
7F
7F
7F
7F
7F
7F
7F
43
80
80
7F
7F
BD
2D
7F
43
5A
A6
43
80
80
EA
80
5A
D3
7F
7F
7F
7F
2D
7F
7F
80
80
80
80
80
80
7F
7F
7F
7F
90
90
D3
7F
7F
7F
BD
7F
7F
7F
00
7F
7F
7F
7F
2D
7F
D3
70
80
80
A6
80
7F
7F
7F
7F
7F
7F
7F
7F
7F
7F
70
90
7F
7F
2D
2D
7F
7F
80
80
7F
80
7F
80
7F
7F
80
80
80
7F
7F
7F
7F
7F
7F
7F
7F
80
80
80
7F
80
90
BD
70
7F
80
7F
A6
7F
70
7F
7F
80
80
80
80
7F
80
70
7F
7F
7F
80
80
80
80
80
80
80
BD
EA
7F
7F
7F
80
80
80
80
7F
BD
80
80
2D
80
70
EA
80
7F
7F
80
80
7F
7F
7F
80
80
80
2D
16
7F
7F
80
2D
80
80
80
80
43
7F
7F
7F
7F
80
80
80
70
16
80
7F
7F
7F
7F
7F
80
7F
7F
43
EA
7F
7F
80
80
80
80
80
7F
BD
7F
7F
7F
80
80
00
80
7F
7F
5A
7F
7F
7F
7F
80
7F
80
70
7F
7F
7F
80
80
80
80
80
80
80
80
80
80
80
7F
80
80
43
7F
7F
7F
7F
7F
80
80
7F
A6
43
00
7F
7F
80
80
80
80
80
80
80
80
80
80
80
80
80
7F
7F
7F
7F
7F
2D
BD
80
A6
7F
EA
D3
D3
16
7F
7F
7F
80
80
80
80
80
80
80
80
80
BD
A6
7F
7F
7F
7F
7F
A6
80
80
7F
7F
D3
16
16
7F
7F
7F
16
7F
7F
80
80
80
80
80
80
5A
EA
80
7F
7F
7F
7F
80
80
80
80
80
7F
00
5A
70
7F
A6
7F
7F
7F
7F
7F
BD
7F
A6
2D
7F
7F
BD
7F
7F
7F
7F
80
80
80
80
80
80
D3
90
2D
16
7F
7F
7F
7F
7F
7F
7F
7F
7F
7F
43
80
7F
80
7F
7F
7F
7F
7F
80
80
80
EA
80
7F
A6
70
BD
7F
7F
7F
7F
7F
7F
7F
7F
80
EA
16
80
7F
7F
7F
7F
7F
EA
80
80
7F
80
7F
80
7F
70
D3
16
7F
7F
7F
7F
7F
7F
7F
7F
7F
7F
7F
7F
7F
16
80
7F
80
80
7F
7F
80
7F
7F
80
00
EA
00
43
2D
80
7F
7F
7F
7F
7F
7F
7F
7F
7F
7F
7F
7F
7F
7F
7F
7F
7F
80
5A
7F
7F
70
2D
BD
70
D3
5A
D3
A6
80
7F
80
7F
7F
7F
7F
7F
7F
7F
7F
7F
7F
7F
7F
7F
7F
7F
7F
00
90
D3
5A
43
5A
2D
BD
43
7F
7F
7F
7F
7F
7F
7F
7F
7F
7F
7F
7F
7F
7F
5A
7F
80
80
BD
00
5A
90
70

// Row 15 (weights pointing to neuron 15)
9D
9D
4A
63
E7
9D
CF
63
63
4A
CF
B6
63
00
CF
63
63
9D
63
00
63
9D
31
9D
B6
9D
63
4A
7C
31
CF
CF
CF
CF
63
84
19
4A
E7
7F
7F
E7
7F
7F
7F
31
E7
00
7C
4A
19
9D
4A
4A
31
31
B6
19
31
9D
84
B6
CF
7F
B6
7F
7F
7F
80
E7
7F
7F
7F
7F
7F
80
80
80
80
7F
7F
7F
CF
B6
00
31
4A
31
9D
7F
7F
7F
7F
7F
7F
7F
80
7F
7F
7F
7F
7F
7F
7F
7F
80
80
80
80
80
E7
CF
31
B6
7F
CF
80
7F
7F
7F
7F
7F
7F
7F
7F
7F
7F
7F
7F
7F
7F
80
80
80
80
80
80
7F
7F
E7
9D
B6
B6
7F
7F
7F
84
B6
80
80
63
7F
7F
7F
7F
7F
7F
7F
80
7F
80
7F
7F
80
7C
7F
7F
4A
19
E7
7F
7F
7F
7F
80
80
80
80
80
7F
7F
7F
7F
7F
7F
7F
7F
31
7F
80
80
80
80
80
7F
7F
00
7F
7F
80
7F
7F
80
80
80
80
7F
31
7F
7F
7F
7F
7F
7F
7F
7F
7F
7F
80
80
80
80
7F
80
19
80
7F
7F
7F
80
80
80
80
80
63
80
7F
7F
7F
7F
7F
7F
7F
7F
7F
7F
7F
80
80
80
7F
7F
7C
84
80
7F
7F
80
7F
7F
80
7F
4A
31
80
4A
7F
7F
9D
7C
7F
7F
7F
80
7F
7F
80
7F
7F
84
00
84
80
7F
80
80
7F
84
80
80
80
80
80
00
7F
7F
7F
84
4A
80
7F
7F
7F
7F
7F
7F
7F
7F
63
7F
7F
7F
00
80
63
80
4A
80
80
80
80
7F
7F
7F
19
7F
7F
7F
7F
7F
7F
7F
7F
7F
7F
84
00
7F
7F
84
80
31
80
80
80
80
80
80
80
7F
7F
7F
7F
7F
7F
7F
7F
7F
80
80
80
7F
7F
63
9D
80
80
80
80
80
80
80
80
80
80
80
7F
7F
7F
7F
7F
7F
7F
7F
B6
9D
80
80
80
7F
7F
7F
B6
80
80
80
80
80
80
80
80
80
80
80
7F
7F
7F
7F
63
9D
7F
80
80
80
80
80
80
7F
7F
9D
84
19
80
80
80
19
80
80
80
80
80
4A
7F
7F
7F
7F
19
80
80
80
80
80
80
80
80
19
7F
7F
31
63
7F
7F
7F
7F
84
80
80
80
80
7F
7F
7F
7F
80
80
80
80
80
80
80
80
84
19
7F
7F
7F
9D
63
7F
7F
7F
63
80
63
80
80
80
7F
7F
7F
80
80
63
80
80
80
80
80
7F
7F
7F
7F
7F
9D
00
7F
B6
7F
7F
7F
7F
80
80
7F
80
7C
E7
7F
80
80
80
7F
7F
7F
84
19
7F
7F
7F
7F
7F
7F
4A
7F
E7
7F
7F
00
E7
7F
7F
7F
7F
7F
31
84
80
4A
7F
7F
7F
7F
7F
7F
7F
7F
80
7F
7F
4A
63
80
7F
7F
7F
7F
7F
7F
7F
7F
7C
7F
80
CF
7F
7F
7F
7F
7F
7F
7F
7F
7F
80
7F
7F
7F
7C
63
B6
80
80
7F
7F
7F
7F
7F
7F
7F
7F
31
7F
7F
7F
7F
9D
7F
7F
7F
31
7F
7F
4A
7F
31
19
E7
9D
7F
7F
7F
7F
7F
7F
7F
7F
7F
7F
7F
7C
7F
00
7F
7F
7F
7F
7F
E7
7F
7F
7F
80
7F
63
4A
4A
7F
7F
7F
7F
7F
7F
7F
7F
B6
4A
7F
CF
7F
7F
7F
7F
7F
7F
7F
80
7F
7F
7F
80
7F
00
63
63
7F
80
19
80
7F
7F
7F
7F
B6
7F
7F
7F
7F
7F
7F
7F
7F
7F
7F
7F
7F
7F
7F
7F
00
63
19
63
4A
80
80
7F
7F
7F
7F
7F
7F
7F
7F
7F
7F
7F
7F
7F
7F
7F
7F
7F
7F
7F
7F
7C
63
7C
B6
4A
4A
31
7F
7F
7F
7F
7F
7F
7F
7F
7F
7F
7F
7F
7F
7F
7F
7F
7F
7F
7F
7F
9D
E7
00
CF
9D
31
31
CF
63
9D
7C
84
84
7F
7F
7F
7F
80
7F
7F
84
80
7F
7F
80
7F
7F
B6
63
63
84
00

